#version: 0.2
Ġ t
h e
Ġ a
č Ċ
i n
Ġt he
Ġ w
Ġ s
r e
Ġ o
n d
â Ģ
h a
e r
o u
e d
Ġ b
i s
i t
in g
Ġ m
e n
o n
Ġa nd
Ġ f
Ġ c
Ġt o
Ġo f
Ġ h
o r
e s
Ġ d
l l
a s
Ġ he
a r
Ġ in
a t
a n
l e
Ġ p
Ġ ha
Ġ n
o m
ha t
Ġ l
âĢ ľ
Ġ I
âĢ Ŀ
o w
Ġb e
o t
i m
u t
i d
l y
i c
Ġ g
s t
s e
Ġt hat
Ġ e
âĢ Ļ
l d
Ġw as
v e
Ġ y
en t
Ġh is
g h
Ġ it
Ġt h
c e
Ġo n
it h
Ġ re
i on
v er
a y
Ġy ou
Ġ u
Ġw ith
e t
Ġa s
Ġw h
a d
i r
a l
u r
r o
Ġha d
gh t
Ġf or
Ġn ot
Ġs t
e re
he r
Ġa t
c h
Ġh im
r i
Ġhe r
Ġs a
o o
ou ld
Ġa n
c t
Ġ T
t er
a nd
es s
a in
i f
Ġs e
Ġ is
Ġm e
Ġ M
k e
Ġ A
Ġs o
i ll
. âĢĿ
Ġm y
Ġ âĢľ
a m
c k
o re
Ġ H
a ll
Ġ P
r om
p e
Ġb ut
r a
Ġa ll
s s
i l
t he
Ġs u
ic h
Ġsa id
om e
Ġs he
q u
t h
âĢ Ķ
Ġha ve
Ġ S
i ght
Ġ B
Ġb y
Ġd e
t o
b le
g e
, âĢĿ
Ġ k
Ġs h
Ġu p
he n
p p
Ġc on
Ġf rom
l f
Ġw ere
e ll
ar d
u l
e m
Ġ r
er s
ver y
Ġth is
an t
ou t
Ġn e
n t
Ġd o
ou s
Ġ le
oo k
Ġo r
es t
at ion
ĠT he
Ġe x
u st
Ġwh ich
Ġwh o
Ġ v
on e
ou nd
u s
o l
? âĢĿ
on g
Ġ Ġ
e l
Ġ W
in d
re d
se lf
Ġk n
Ġon e
ar t
Ġa l
Ġm an
ou r
Ġn o
o st
as t
Ġthe y
! âĢĿ
l i
ow n
u n
a k
Ġo ut
oo d
Ġl i
Ġw e
Ġbe en
is t
Ġthe re
u m
Ġw ould
Ġc om
at e
r y
Ġthe m
Ġ N
Ġw hat
ha n
Ġ D
l o
he d
it t
ou gh
T he
Ġw hen
Ġa b
a p
r in
Ġ C
Ġa g
or t
Ġw or
l a
am e
Ġl ook
Ġu n
. .
v en
Ġ ro
u re
t her
h ing
Ġa r
a g
Ġc ould
Ġthe ir
w ay
Ġ j
i ve
i g
Ġa re
it y
o p
Ġ if
ere d
a ble
ur n
p er
nd er
o s
v ed
Ġf a
Ġ qu
ĠH e
Ġan y
Ġyou r
Ã ¡
id e
e ct
Ġ F
Ġt im
f f
Ġg o
re ss
Ġf e
re at
Ġn ow
Ġin to
i e
a u
Ġd id
o d
it e
f ore
Ġm ore
ic e
Ġs ome
Ġa m
ou ght
Ġ L
Ġs p
ot her
a b
Ã ³
v ing
Ġ E
ou nt
Ġ G
Ġkn ow
ĠM r
e p
Ġw ill
Ġha nd
an ce
i er
Ġ R
c c
Ġ very
a ck
k ed
as s
Ġp re
ĠA nd
in e
p t
all y
Ġthe n
Ġag ain
a ke
f ter
Ġof f
Ġo ther
Ġtim e
Ġc an
Ġse e
o f
i ous
o se
Ġp ro
Ġ im
Ġ J
he re
i re
en ce
a re
i le
Ġa d
ar y
Ġon ly
m e
Ġab out
Ġo ver
itt le
m ent
r u
Ġs ay
Ġli ke
w n
Ġt w
at her
Ġp o
Ġd own
i p
Ġto o
Ġc o
a c
n e
Ġu s
Ġt han
Ġd is
b e
b er
re w
Ġs m
Ġ en
ĠĠ ĠĠ
u ch
is h
n ess
e nd
Ġbe fore
a ge
ĠB ut
Ġsh ould
in k
Ġs ha
h is
Ġh ow
u d
i es
if e
ic k
at ed
o ve
Ġl ittle
Y ou
n g
ar s
Ġre m
Ġb o
Ġd ay
re e
ad e
Ġc h
Ã Ń
Ġ O
Ġe very
o v
ier re
is s
Ġup on
Ġe y
Ġb r
rin ce
t hat
u ll
ing s
ĠI t
w ard
t ain
ri ed
ri ght
Ġl ong
f ul
t y
Ġo ld
Ġu nder
l ed
Ġa fter
Ġhim self
ion s
Ġth ought
Ġbe g
r an
Ġsu ch
s h
m an
Ġg r
Ġse em
Ġf ir
ss i
Ġha s
f or
f t
Ġp e
c ed
Ġm ust
Ġhe ad
re n
Ġw ay
Ġit s
ad y
om et
n ing
Ġw ent
w h
Ġe ven
i ly
en ed
Ġm uch
Ġtw o
Ġp art
in t
s ha
Ġcom p
a ch
Ġo ur
Ġre p
ĠP ierre
Ġc ame
a ve
pe ct
c ess
l es
Ġg reat
Ġey es
w e
Ġne ver
o ll
Ġth ink
o nd
Ġt urn
Ġo wn
Ġc ome
Ġb ack
Ġar m
ar k
Ġb l
Ġro om
Ġth r
Ġfa ce
Ġp er
d e
c es
n ot
Ġfir st
Ġbe c
th ing
is e
a v
Ġg ood
on s
Ġm ade
Ġp l
Ġc ha
or d
Ġa way
u e
Ġex p
Ġg l
Ġthe se
Ġle t
Ġlook ed
Ġm ight
Ġst ill
ou se
Ġs c
ha le
ig n
Ġw here
i ld
Ġbe t
l ess
Ġhe re
Ġh o
Ġcon t
Ġim p
s o
g ed
E R
Ġbe ing
s ent
i ed
t e
au se
Ġd es
Ġ K
r ow
Ġs pe
Ġc ount
H A
k ing
Ġl ast
Ġin t
Ġp ass
Ġre s
Ġm ay
at Ã¡
ĠP rince
Ġs omet
le as
Ġat t
ak ing
Ġm en
Ġ _
Ġwor d
Ġwith out
e ver
n er
j ect
Ġth ose
T ER
Ġo b
p s
Ġha pp
- -
P TER
HA PTER
Ġ ent
i v
ĠS he
Ġ (
C HAPTER
Ġp r
t ed
Ġp la
Ġsa me
way s
Ġre t
w ith
Ġseem ed
en er
I t
Ġcon s
Ġl ife
atÃ¡ sha
Ġsa w
Ġcom m
l ing
Ã ©
el t
ren ch
Ġj ust
Ġw ell
c i
i z
Ġha r
A nd
âĢ ĺ
u b
H e
at h
om ent
Ã³ v
Ġy e
w as
Ġm ost
Ġf l
ĠS t
Ġ ra
a red
or y
or s
at ter
o e
Ġo p
Ġg et
Ġle ft
Ġbeg an
Ġd on
e w
Ġt r
B ut
m ed
if f
ent ly
Ġ ke
i gh
c om
at t
b ut
d en
Ġa cc
Ġfe el
Ġyou ng
ri end
e x
is hed
Ġv o
Ġth ough
he s
Ġthr ough
c y
c on
Ġc l
Ġan other
in ess
pp ed
t ing
Ġnot hing
it ion
Ġr ound
n a
ct ion
Ġn ight
Ġt ell
Ġf elt
.. .
Ġas ked
Ġhe ard
Ġy et
ĠAnd rew
u p
Ġm oment
Ġf ather
o le
Ġs at
an s
ĠF rench
ation s
u ck
Ġa p
et h
Ġwh ile
Ġtoo k
re t
Ġal ways
ow ed
v es
Ġs er
Ġ V
k s
Ġe ver
g er
od y
ot h
Ġw ant
Ġdo or
g et
Ġe v
op le
Ġsomet hing
Ġ You
Ã º
Ġhand s
ost Ã³v
Ġm ar
Ġc all
Ġh ouse
Ġ right
a ir
Ġp ut
Ġl o
is ter
Ġa pp
Ġw at
c l
ĠI n
Ġw hale
Ġne w
Y es
Ġf riend
ĠĠĠĠ ĠĠĠĠ
Ġde ar
Ġm ake
ĠN atÃ¡sha
d er
rin cess
y ou
ro ss
Ġd ist
Ġsha ll
Ġt al
Ġw r
er tain
W hat
s w
Ġf ound
Ġso on
Ġwho le
Ġc ar
Ġon ce
Ã³ n
Ġe nd
h y
Ġt e
Ġre g
c hed
en s
m ost
r on
ic t
h im
Ġt ake
o y
Ġs ide
ĠM iss
Ġp leas
e v
m en
ener al
Ġqu ite
s er
Ġse en
Ġs l
Ġpla ce
st and
Ġkn ew
c o
Ġd one
a id
ar ly
ress ed
in ed
Ġpe ople
Ġc lo
ic ul
s k
Ġret urn
as e
Ġg ot
Ġm ind
ĠJ oe
m er
Ġgo ing
Ġl ight
Ġin st
Ġman y
Ġad d
e f
Ġth ree
Ġs et
au ght
Ġoff ic
Ġf ell
Ġan sw
a w
s p
ar ge
re ad
Ġd ra
at ing
Ġl ove
ow er
ull y
Ġo cc
ĠR ostÃ³v
ain ed
Ġturn ed
a it
s u
u ssi
Ġm o
i x
Ġap pe
Ġw ind
ha d
am p
o ke
Ġlook ing
Ġbo y
Ġm or
Ġto ld
ce pt
is ed
Ġsu pp
Ġc ap
a ce
k h
ent le
ent ion
Ġmy self
Ġh u
li z
ward s
Ġa c
Ġc our
a il
ar ing
Ġwh om
Ġs il
Ġcon f
Ġc le
ur p
Ġse c
ak en
t en
Ġhe art
ow s
ÃŃ s
Ġha ving
ĠThe y
ab eth
liz abeth
l p
Ġbec ause
Ġa ff
Ġsu b
Ġh or
Ġvo ice
ver s
c ow
Ġs w
ar n
o ld
ou b
Ġf ar
Ġw om
as on
u al
Ġst r
ĠA n
it her
Ġc han
os cow
b y
Ġe m
p o
se l
Ġs ister
Ġre f
Ġp ers
ow ing
Ġth ing
ra ct
we en
, âĢĶ
Ġpre sent
ĠM ary
Ġher self
W ell
ĠThe re
Ġre st
ĠW hat
Ġc or
ssi ble
Ġword s
ĠR ussi
Ġ X
er ing
d den
i al
m per
l ic
li ed
ce i
Ġch ild
i ble
in ce
Ġst ood
Ġg eneral
Ġwor k
Ġt er
an y
Ġst re
it s
Ġd iff
Ġr an
Ġb oth
Ġhar d
Ġg ive
wh ich
n ow
Ġf am
d ay
Ġqu est
ent s
Ġfe w
Ġf oll
Ġc ried
ha b
en se
Ġsu dden
li e
f ully
is on
i red
Ġ âĢĺ
b ody
Ġc he
Ġha lf
ha m
Ġcons id
ĠT om
N o
Ġf ind
ol as
h ind
ĠM oscow
in s
ich olas
ate ly
Ġb us
Ġs le
Ġg u
Ġst ran
Ġmor ning
I I
Ġc ertain
ie f
mper or
Ġad v
o ot
im p
er y
Ġk ind
Ġpo int
Ġh ome
Ġg entle
Ġarm y
Ġa ct
Ġst and
he ther
re ady
ic al
Ġre ad
Ġg ave
Ġagain st
o ck
Ġbet ween
Ġin d
Ġbet ter
ou d
Ġany thing
Ġam ong
Ġw al
g g
get her
c ing
he ad
Ġw ar
O h
f ort
Ġsh ip
la ck
Ġunder stand
i et
it ed
Ġf ire
Ġin ter
Ġe l
Ġwor ld
Ġsm all
Ġexp ress
ha r
Ġcomm and
Ġm atter
Ġl ay
ir c
ul t
ap ole
Ġlet ter
apole on
Ġm other
us ed
Ġg i
Ġst e
s he
Ġso ld
Ġ 1
I n
u red
in u
m y
Ġd ark
Ġho pe
y ing
ch ing
ĠE mperor
Ġth ings
Ġv is
l ight
er n
Ġa ir
ur ing
ab ly
k en
id es
Ġme an
itt ing
a le
Ġh our
a ct
ĠW hen
f e
u nt
Ġb ro
a ut
i an
Ġal so
a z
Ġbe lie
l s
Ġa w
Ġin v
ure s
sel ves
ĠH is
Ġc ur
Ġop en
ĠI f
ĠT hat
ut e
p l
ĠA s
Ġf ore
im es
x t
Ġg one
Ġs ound
Ġd ire
ry ing
g r
re g
or ry
Ġal most
Ġcall ed
an e
Ġh um
Ġex c
Ãº z
n o
Ġl ist
ĠT his
Ġs ir
ing le
Ġt aken
Ġn at
ĠE lizabeth
cei ved
Ġn ame
ere st
Ġd ro
Ġrep lied
Ġhe lp
ut Ãºz
et s
utÃºz ov
Ġdo es
Ġw ife
ĠMr s
Ġb ed
Ġm on
Ġbe hind
im e
Ġpass ed
y a
re m
Ġin f
Ġal ong
Ġsudden ly
ha ps
ĠH er
Ġre c
Ġde c
b ed
Ġwh ite
Ġal ready
ac hed
Ġse a
ie ld
Ġday s
ou n
Ġe ach
att le
Ġs ince
Ġh igh
Ġin de
ĠN icholas
.. .âĢĿ
Ġhe ar
Ġas s
Ġbr ought
os ition
Ġho ld
o g
p re
Ġrem em
as h
Ġne ar
Ġspe ak
ĠG od
an k
ĠW e
Ġen ough
Ġevery thing
Ġc r
The re
ect ion
Ġm in
Ġl ess
b r
il ed
Ġt able
ĠF or
S he
c ious
Ġw ait
Ġf in
Ġwh y
Ġbo at
Ġb re
Ġc are
at es
ĠN apoleon
l and
the re
e qu
en n
w here
il ity
Ġke ep
oo l
Ġex pect
us hed
f rom
m es
Ġf re
Ġt ra
id d
Ġcont inu
Ġb est
ĠO n
Ġcan not
Ġye ars
Ġw hether
Ġquest ion
id ed
Ġsm ile
Ġsh out
Ġev id
Ġs ent
T hat
as ter
i ers
Ġt ill
M r
Ġs k
Ġd et
Ġin s
ĠD o
kh ov
Ġn or
li ke
Ġb lack
Ġin c
an ces
Ġd oub
im ent
ĠA hab
ard s
Ġal one
Ġother s
ct or
aught er
Ġor der
Ġof ten
Ġtim es
u c
Ġw ish
Ġre ason
Ġm is
ĠS o
ol mes
Ġreturn ed
Ġbus iness
ant s
um p
sk i
Ġcour se
g s
Ġre l
Ġpo or
Ġc irc
ain t
w ing
Ġr un
w hat
ron t
Ġwom an
Ġpers on
Ġf ull
ĠT h
Ġne xt
a ving
p ro
ing ly
Ġh ur
ĠP rincess
Ġpr ison
W hen
Ġh on
ro om
Ġex t
lo ck
Ã³n ya
th is
Ġg ir
Ġor d
at er
Ġu nt
Ġsu re
ud e
ha ve
ri age
ĠA l
Ġsu n
ĠB e
ound ed
ment s
c ri
m s
Ġ ir
Ġco nd
Ġfeel ing
Ġle ave
Ġ ri
) ,
w ere
Ġ es
Ġe ff
Ġde ath
ous and
Ġhow ever
Ġoffic er
g ing
Ġfam ily
s ed
Ġre ally
ĠA t
Ġstr ong
en ÃŃs
at i
le ct
ĠT hen
op s
Ġsu ff
Ġr ather
ĠK utÃºzov
enÃŃs ov
ar cy
d u
Ġdis c
Ġeven ing
row d
Ġd an
Ġl au
ut en
if ic
ĠP ro
Ġint erest
m on
v al
Ġl arge
Ġhis t
Ġto gether
Ġst o
os ed
Ġstran ge
or row
Ġre pe
Ġcom ing
ious ly
Ġc ase
Ġst ep
Ġst ru
Ġne ed
ere nt
Ġde ad
Ġtal k
Ġel se
t s
Ġt ru
Ġu se
ĠRussi an
l ook
Ġf all
ill ed
il ing
Ġpl ay
Ġs ign
air s
ou l
one y
urp r
u nd
Ġas k
ĠH olmes
Ġf our
ir d
Ġsh ort
o nder
Ġp ower
âĢľ âĢĺ
b and
c ha
e e
Ġ Y
Ġwat er
Ġs ort
is ing
Ġch ief
Ġfell ow
Ġs on
en ing
Ġf ront
ce ed
ĠH ow
ent y
Ġman ner
The y
Ġad m
ut h
art ed
Ġqu ick
ber g
v o
ot t
the y
ĠN o
Ġha ir
un g
Ġbelie ve
b o
l ong
u nder
ĠD arcy
Ġro ad
for m
d o
Ġb attle
Ġto wards
Ġe ar
Ġde v
Ġwho se
P ierre
. âĢĻ
Ġ ide
is f
u ff
ou th
ie w
Ġbec ame
Ġadd ed
Ġde p
iz ed
M y
N ow
h o
i a
w or
Ġclo se
y e
Ġo pp
ant ly
W hy
g u
Ġ U
Ġ ill
Ġm ove
T his
Ġf oot
Ġc rowd
Ġser v
Ġb es
ĠB enn
Ġhapp y
c le
re am
pe nd
ĠĠĠĠĠĠĠĠ ĠĠĠĠĠĠĠĠ
H ow
Ġkn own
Ġcha r
Ġt aking
Ġsay ing
b ur
uten berg
Ġl ad
Ġg ra
pp ing
Ġar ri
ne y
Ġhor se
Ġj o
c hes
g o
Ġs ur
us band
Ġfa ct
Ġob ser
Ġinde ed
n ight
r ing
per i
Ġt ou
er able
n ce
Ġ Q
ĠM y
Ġey e
A s
or m
Ġit self
um b
p ar
Ġto wn
Ġth ousand
Ġre ceived
Ġansw ered
Ġre al
Ġde ep
Ġli ve
ag g
ress ing
Ġunt il
Ġgi ven
Ġp ur
Ġl ost
ub b
d is
Ġwith in
Ġv ill
ag es
I f
w ould
ĠP ip
i b
Ġd in
Ġhe ld
Ġl ady
Ġapp ro
Ġsle ep
Ġexpress ion
Ġfe et
Ã³ lo
u ally
Ġcon v
end ed
w hen
Ġe as
the m
Ġt ried
Ġl ow
ĠA ll
em pt
Ġent ered
med i
Ġsto pped
Ġs ight
Ġc al
Ġre d
ver al
Ġm il
Ġf ur
Ġbr other
Ġvis it
W e
itt ed
Ġar ound
wh o
Ġansw er
en g
Ġy es
Ġqu iet
Ġke pt
s on
Ġw on
Ġco ld
Ġexp l
s ide
Ġd ri
Ġst ra
Ġwind ow
Ġdire ct
Ġw ha
Ġpart icul
st ood
Ġfe ar
Ġpo ssible
n at
Ġs urpr
Ġm oney
Ġwh is
ĠC ount
Ġsold iers
Ġme et
ĠB or
Ġle ast
le x
ĠL orry
a pp
e c
Ġdoub t
Ġp rom
ĠS Ã³nya
Ġsp oke
Ġcount ry
c ul
ha nd
as ion
Ġs itting
re s
Ġm ere
id ent
Ġw ood
Ġthem selves
ĠD enÃŃsov
ber t
Ġarm s
an ced
Ġl aw
Ġc ol
Ġl and
Ġt ri
Ġbe aut
ic ed
Ġyour self
ĠAl ice
A t
O n
c ons
e g
Ġm et
Ġsp ir
Ġus ed
Ġh usband
Ġp ap
th ough
Ġpre t
Ġcount ess
u g
Ġa f
Ġb ur
Ġp ain
g in
w ill
it ude
Ġen em
ors es
t ered
Ġm er
Ġst ate
Ġcon c
Ġob ject
Ġwant ed
Ġmo ved
Ġb ody
Ġde f
Ġpre v
Ġper haps
Ã³lo khov
Ġb ad
Ġf ree
Ġtru e
ic es
et y
Ġt ro
Ġsec ond
it ies
Ġp rince
Ġp osition
Ġfor ward
ra id
ag ed
vers ation
Ġ âĢĻ
Ġd est
ĠN ow
k n
u se
Ġt ran
Ġb en
Ġen g
av is
lo v
h ow
Ġd uring
Ġro se
a ff
p h
Ġc ross
al s
Ġcontinu ed
Ġevid ently
Ġre ady
em ent
Ġrem ained
Ġturn ing
avis ham
i ar
o ver
Ġfor m
ri ble
Ġappe ar
Ġw onder
Ġd aughter
Ġbeg in
e y
u ght
ur al
Ġg re
ter s
Ġj oy
ect ed
s m
Ġse veral
Ġab s
ingle y
Ġm ist
sh ip
Ġs oul
Ġp rincess
la im
Ġgentle man
s ome
Ġf lo
Ġrepe ated
r or
Ġgr ound
Ġstand ing
w o
Ġim ag
Ġres pect
Ġsub ject
ĠBenn et
m b
Ġne cess
Ġhum an
ĠQ ue
Ġp ast
id ing
Ġacc ount
e k
Ġe ither
Ġm aking
l er
Ġhe av
Ġp ol
Ġdis p
Ġlong er
st er
Ġsomet imes
ef arge
Ġhu nd
r un
Ġ ut
Ġin qu
um st
Ġappe ared
P rince
ĠT o
Ġab ove
ĠE ng
ĠPro ject
Ġhund red
Ġc reat
Ġhapp ened
reg or
the ir
Ġide a
Ġenem y
a ven
c ould
Ġ est
in ation
Ġsee ing
Ġrem ain
Ġfoll owed
or n
Ġgl ad
ar b
ak es
Ġcha ir
ix ed
lov na
us h
S o
g n
st r
medi ately
Ġh orses
as k
Ġgir l
e as
Ġfor t
ere nce
Ġan g
ap tain
Ġcle ar
ot e
ut es
ĠH avisham
ous ly
Ġar t
N ot
Ġl ine
ĠW hale
Ġdra wing
e ad
e very
m ick
Ġg all
em mick
be en
ĠP et
per m
Ġop ened
Ġremem ber
bur g
Ġres ol
Ġdin ner
, âĢĻ
Ġs we
Ġb ook
Ġaf raid
o b
o ff
ract er
a h
c ome
y our
Ġw all
Ġf ing
Ġsu m
ru pt
Ġs imp
Ġb right
Ġm ad
at ch
Ġimp ort
Ġt en
Ġw ished
at ive
ic ally
Ġhard ly
Ġshout ed
Ġ ve
is hing
ot ion
pe ci
ap pe
Ġcont r
Ġac qu
Ġac ross
Ġsil ent
Ã ¨
Ġre co
ĠB ingley
Ġv iew
ĠG utenberg
com p
Ġsl ow
D o
Ġb it
ce ll
ir t
Ġst ay
Ġme ans
y d
Ġs y
Ġm us
Ġc ause
Ġto ward
ot s
Ã¡ n
N atÃ¡sha
f l
p ed
Ġa ble
en ess
Ġc ut
st ell
Ġfor g
Ġlau gh
c her
Ġpro p
Ġtal king
Ġcommand er
Ġvill age
a cc
p id
rin k
con t
Ġpleas ure
Ġwom en
Ġs it
Ġs ad
ll ed
Ġp urp
if ul
Ġdo ing
ty a
Ġte ars
Ġt re
ou ra
Ġb all
Ġm ur
Ġd read
Ġatt ention
Ġdiff erent
Ġconsid er
Ġstru ck
stell a
r own
Ġc ra
un e
Ã© tya
Ġreg ard
Ġdiff icul
T hen
m p
m ing
ing ing
Ġl ate
ĠJ ane
Ġrem ark
l ish
t on
Ġb reat
Ġm outh
ter n
Ġsay s
Ġdes p
Ġsil ence
ĠHer bert
T h
Ġcon versation
ul ar
Ġpro f
s aid
in ion
al th
Ġreg iment
ÃŃ n
Ġm ention
as ÃŃ
Ġl if
ss ess
ist ed
.. ..
o int
Ġs ix
Ġto r
Ġimp o
m ore
Ġt one
Ġf ive
Ġc a
Ġfor mer
Ġus ual
Ġoffic ers
Ġe qu
Ġsh ow
ĠD efarge
Ġsl ight
Ġbre ak
Ġf an
Ġdan ger
a j
Ġf ig
Ġf ine
ut ion
Ġsha r
ÃŃ t
ĠAn na
b our
Ġs qu
ĠW h
are nt
Ġ *
ou p
Ġk iss
Ġv ar
Ġfa ces
Ġpre s
m and
s c
w ell
Ġbl ood
Ġocc asion
Ġwal ked
equ eg
le te
Ġg lo
ĠM ad
ers burg
Ġqu ar
Ġpl ain
in ing
Ġm aster
Ġst ri
Ġso ci
Ġle g
ag ain
ĠG regor
Ġsat isf
Ġfriend s
peci ally
y ed
y ond
Ġha t
Ġnew s
Ġa ction
Ġs ense
Ġg az
Ġseem s
Ġset t
Ġocc ur
Ġd rew
Ġth ou
ĠW emmick
Ġli ps
Ġocc up
cept ion
Ġp ost
be fore
ĠO ne
Ġthought s
Ġcomp any
Ġcor ner
agg ers
it ing
Ġthere fore
ĠD Ã³lokhov
Ġye ar
Ġhour s
Ġimpo ssible
Ġbec ome
A h
f ect
Ġp ri
the n
ĠO h
Ġsec ret
w ise
Ġim mediately
Ġad j
Ġrep ly
idd y
Ġstra ight
asÃŃ li
b b
v is
Ġd ut
ol k
um ber
Ġunder stood
g l
en cy
Ġc ry
Ġde light
Ġle ad
us ion
Ġany one
ove red
ĠX X
Ġ1 8
Ġtro ops
A ll
t ime
Ã «
ha pp
it ation
it ions
Ġd ress
Ġth us
Ġnot iced
Ġse lf
Ġf right
ĠW ith
Ġfa v
Ġl ed
Ġli ving
Ġtw enty
Ġco ll
Ġcha racter
Ġhapp iness
iv es
ĠSt ubb
Ġchild ren
ĠBor ÃŃs
an g
il s
ub lic
Ġcar ried
Ġem b
Ġear th
eng th
f ast
p ter
Ġp ar
ir st
sh ould
g ged
Ġs ens
Ġb u
Ġre ached
Ġst ud
Ġso ft
r ation
ag er
Ġpre p
Ġpro per
Ġfeel ings
cl ud
Ġcertain ly
Ġcirc umst
Ġw ild
on es
Ġinst ant
Ġb ar
em p
Ġag o
ive ly
Ġpe ace
c han
o ss
ond on
p leas
Ã¡ v
ĠE stella
led ge
iz e
h ouse
Ġb urn
ce nd
Ġmin utes
k a
in to
ou ble
ver n
ri but
Ġan x
Ġspe aking
Ġstre ng
Ġbes ide
Ġt rying
at s
Ġord ers
it ary
an cing
id ge
id ence
Ġg un
ĠN ot
Ġro de
cc ess
Ġpl an
Ġchan ge
Ġstep s
in ter
ar ked
Ġp ull
ur ch
qu est
Ġsp o
T o
Ġo ught
Ġha st
ce ive
one l
ĠW hy
are r
wh ile
Ġop inion
S t
c an
Ġc amp
ĠC h
in es
in ary
Ġst art
Ġan im
Ġso l
pect ed
Ġra pid
Ġmon th
Ġquick ly
in ct
ssi b
Ġhist or
u ct
er g
Ġh op
Ġd iv
Ġbe yond
Ġst ory
Ġex cell
Ġpro b
s omet
Ġl aid
ĠP Ã©tya
Ġle arn
ĠJ aggers
Ġmere ly
ou red
ter ing
Ġso le
ust om
Ġcar riage
A fter
F or
d id
Ġpr ay
Ġnecess ary
m a
ar ch
Ġl ength
oo se
Ġsh owed
Ġcom fort
him self
b it
Ġt ry
Ġc op
Ġth ird
ad ed
ck ed
ĠH uck
Ġcomm on
kn own
b s
d es
Ġm ine
ress ion
iss ion
ret ched
Ġsupp ose
ĠDo ctor
Ġir on
Ġes c
Ġcal m
W ith
p art
er m
Ġm ut
Ġf ixed
if ied
Ġle an
Ġwor th
Ġen c
j oy
Ġp at
th ought
ĠL ondon
Ġthink ing
Ġbl ue
Ġsc ar
Ġwha les
Ġpret ty
Ġpurp ose
p la
r ay
Ġf ield
le ep
ĠC aptain
Ġget ting
Ġacc om
ĠV asÃŃli
Ġeff ect
ĠPet ersburg
Ġ ed
Ġw ine
Ġf ast
Ġtr uth
Ġslow ly
T om
h ood
l ow
Ġd ream
le t
Ġme ant
ĠA r
Ġex peri
el s
itt en
Ġent ire
Ġhar po
Ġpur su
c he
e ven
Ġr u
ort ed
Ġcomp an
E lizabeth
e ks
z e
Ġw ounded
Ġs n
Ġme m
I s
m orrow
Ġcon st
ie ce
av es
Ġaff ection
Ġfre sh
d own
r ance
Ġb ott
Ġe le
âĢĶ âĢĿ
Ġsm oke
Ġpe as
Ġgl ass
Ġgl anced
Ġhist ory
h old
i ol
t r
et te
ĠM an
all ed
Ġreco gn
olk Ã³n
Ġco ach
Ġra ised
Ġter rible
Ġnat ure
ĠQue equeg
r um
Ġwe ak
ĠL uc
Ġsold ier
d d
Ġle gs
Ġj ud
Ã¡ y
ĠL et
Ġco at
ick ham
Ġcomp lete
Ġwat ch
Ġem p
Ġhur ried
laim ed
Ġf if
se qu
il t
ach ing
Ġprison er
arb uck
i ans
l ittle
al ity
oll ins
Ġcour t
Ġstreng th
c lock
i am
m n
ha pter
ain s
ore d
Ġpo ssess
Ġdist ance
Ġwait ing
idd le
Ġmove ment
e ath
i ent
se e
Ġu nd
Ġboy s
Ġcap tain
Ġlist ened
Ġlad ies
Ġn one
Ġg rew
ĠA ust
n ers
Ġs ides
re et
o es
se t
Ġfor ce
Ġsa il
Ġper fect
b l
o is
Ġp ort
Ġp ale
Ġbe ar
Ġfor get
Ġnot ice
um ble
Ġgo ld
Ġclo sed
Ġgentle men
Ġexpect ed
Ġrun ning
Ġarri ved
Ġheav y
b ered
c ent
Ġknow s
Ġob li
Ġmar ried
Ġwal k
Ġpap er
g es
am es
Ġatt ack
Ġgi ving
Ġes pecially
Ġeff ort
Ġsoci ety
olkÃ³n ski
a fter
Ġw a
Ġm id
Ġg ri
ĠA fter
ex p
Ġhon or
Ġfig ure
_ .
r ough
on ly
ot hes
ce ly
Ġde al
p r
Ġa in
Ġs ingle
ar ily
Ġdid n
ran ge
Ġserv ice
A n
a ction
b et
Ġp ay
Ġl ater
ve re
ust ration
Ġfur ther
Ġflo or
! âĢĶ
f ace
Ġa st
Ġm ount
and er
ab out
Ġbr ing
Ġfir m
Ġnat ural
Ġdest ro
a pe
e ar
re as
ic ked
Ġg ener
ve red
ĠB iddy
ard en
ĠC har
Ġstre et
Ġdro pped
Ġspir it
re sent
Ġh ig
Ġcon n
ĠW ell
Ġevery one
Ġconsid ered
II I
I ll
Ġb ound
Ġc and
Ġh ill
ar m
Ġp a
ĠG er
Ġsm iled
Ġlo ved
Ġbro ken
Ġhold ing
Ġdut y
k er
Ġsu ccess
em ed
Ġne ither
ie ur
ĠE very
Ġchan ce
? âĢĻ
Ġf ro
Ġde ck
ne w
Ġevery body
Ã© l
ex t
Ġwar m
o ly
Ġth in
to gether
Ġag ree
for med
Ġsurpr ise
Ġadj ut
Ill ustration
ll ing
Ġse nd
Ġcom es
Ġdes ire
ĠK ing
Ġchan ged
equ od
W h
e per
i pe
Ġw it
Ġb ri
Ġse par
ck et
ĠC ollins
Ġsm iling
Ġrem arked
Ġtal ked
Ġwr ong
Ġpleas ant
ĠAn at
look ing
Ġappear ance
Ġimport ant
! âĢĻ
s ay
Ġm od
ir ty
ch ief
Ġfa ir
Ġpro du
Ġhands ome
Ġeas y
Ġwhis p
ĠAnat ole
r it
Ġsa ke
âĢĶ âĢľ
Ġsh ook
ell e
Ġne arly
ol unt
ĠL ady
Ġmo ving
Ġinter rupt
yd ia
Ġpres ence
R ostÃ³v
i at
ad es
Ġex act
us hing
our ney
Ġhu nt
Ġgu ard
Ġparticul ar
u ss
Ġl ower
ur y
Ġex cept
ĠSt arbuck
Ġacc ord
Ġvo ices
Ġpleas e
Ġhu ss
Ġinqu ir
ĠEng lish
aj est
Ġf ight
em ber
os ing
Ġsha d
Ġsc en
Ġdes cri
Ġpla ced
Ġvar ious
i ver
p it
s pe
t m
in ite
en ced
Ġc ent
Ġe ager
ve l
ent ed
ad d
Ġr id
Ġv al
um ed
ĠD on
up on
cul iar
Ġdifficul t
Ġc aught
Ġto p
Ġe ight
ĠW ickham
ag r
Ġknow ing
Ġhead s
ons ieur
Ġres ult
Ġbeaut iful
Ġbegin ning
l u
p ing
Ġl ying
Ġst arted
Ġsh ut
est ed
ĠL ord
Ġmar riage
Ġmean ing
Ġbro ad
C hapter
j ust
k now
Ġm ark
Ġm iddle
ar r
Ġne igh
Ġpro v
with out
Ġcons cious
Ġobser ved
Ġshar p
p an
r ist
s at
Ġa unt
Ġd ie
Ġg ate
Ġpass ing
Ġdire ction
Ġri ver
Ã¨ ne
oss ack
o cc
Ġl oud
Ġbe long
ch ook
Ġne ck
Ġle aving
Ġli ved
os ity
Ġafter wards
Ġdes er
Ġgall op
f ather
g reat
t han
ut ure
Ġth rew
Ġex am
Ġdra w
Ġdet erm
umble chook
Ã©l Ã¨ne
c ount
h or
o ved
r ound
re l
ou ri
Ġp ict
ĠA lex
ĠH ere
Ġpo ssib
Ġch urch
Ġexp ressed
Ġcircumst ances
somet hing
B e
H is
a f
g hed
i ke
t le
Ġs orry
on ed
Ġp or
Ġe arly
ĠP Ã¡v
Ġdo ctor
Ġv ict
ag n
not hing
Ġev ents
Ġcap t
h il
k es
Ġfor th
Ġan n
Ġdis m
tain ed
Ġev ent
Ġang ry
appe ared
in ced
Ġm ain
Ġf at
Ġwe ek
Ġdec ided
d ra
n ed
s ing
Ġm ed
Ġm ass
Ġh ot
Ġl atter
Ġre li
Ġex ist
Ġv iol
ĠW ill
Ġpr ot
Ġwr ite
j o
Ġa vo
Ġs ch
Ġc ru
ĠP equod
Ġde g
ol ute
ĠO r
d ist
z y
Ġt rem
Ġw ide
re p
Ġh ung
ĠI s
ell ow
art on
ort un
Ġlook s
Ġsp ot
Ġref lect
Ġter ms
Ġexc laimed
Ġsk y
Ġforg ot
Ġsett led
i ence
re st
Ġc as
Ġd ied
ĠP ar
Ġde mand
Ġsp ent
Ġen joy
end ing
Ġeng aged
ha s
Ġm iss
Ġhe aven
Ġin form
Ġha ng
ly ing
ĠL ydia
ac qu
Ġfoll owing
ati Ã³n
Ġcreat ure
agr atiÃ³n
O ne
f er
m uch
Ġthe e
is es
Ġd are
Ġn umber
Ġg arden
ain ing
ĠP ross
ust ed
ather ine
Ġshould ers
ran k
iv id
Ġwr ote
Ġfright ened
c ertain
s pect
Ġt all
is ion
as hed
at he
ĠS ome
ĠF rom
Ġknow ledge
ac y
... .âĢĿ
Ġinst ead
Ġaff airs
Ġstran ger
Ġremem bered
ĠU n
oura ge
Ġglo om
_ ,
c ame
c ip
f ield
m in
Ġ Yes
Ġp ublic
if t
um n
Ġj ourney
ud den
Ġwr itten
ĠX V
iet y
Ġcontr ary
A l
t urn
Ġ 2
Ġf uture
Ġl im
Ġth y
hen s
Ġshould er
Ġpart y
iv ity
Ġret reat
con f
Ġcl oud
Ġte nder
ĠRussi a
Ġbur st
Ġbreat h
c ar
e or
Ġd im
se mb
Ġe at
ro ad
Ġst ern
ri f
Ġk illed
Ġrep ort
ex pected
Ġpleas ed
Ġstre ets
fort un
Ġmil es
Ġsole mn
ĠMan ette
ĠGer man
Ġwhisp ered
Ġw is
Ġb ent
on y
Ġd en
Ġas leep
iz ing
Ġche er
ock et
Ġtran s
Ġfing ers
clud ed
, --
s uch
Ġa im
er ry
Ġb ra
Ġc ast
Ġc ab
Ġc rew
Ġfor med
Ġde li
ous es
me nd
Ġthan k
Ġsm o
Ġmin ute
Ġord ered
Ġdev il
c ause
u ous
Ġa ge
Ġs ing
Ġr ushed
ĠC ossack
arn ay
Ġsurpr ised
W ho
e av
g an
g ra
l ay
Ġs al
Ġf un
Ġd ressed
am ed
Ġcon ce
oll y
Ġspo ken
Ġadjut ant
G ood
r ic
t wo
Ġc re
ĠP umblechook
th ink
Ġv an
ound s
un ic
Ġun able
ĠG u
Ġgreat er
Ġgl ance
Ġquest ions
Ġfin ished
Ġkiss ed
Ġstud y
Y our
Ġf ish
Ġc art
Ġp ity
Ġli e
Ġab and
Ã¡ ty
Ġsp ite
Ġpro ceed
Ġgr and
Ġint ell
uck et
ail s
Ġprob ably
M iss
Ġs now
Ġb ow
Ġm aid
om an
ĠB olkÃ³nski
Ġr ising
Ġno se
Ġun if
Ġgo vern
are st
ord s
Ġbreak fast
Ġoccur red
Ġscar cely
C ome
al ed
em ois
Ġwor ks
ĠG eor
Ġent er
Ã© n
Ġbeaut y
Ġoccup ied
emois elle
g ood
Ġf le
Ġf ool
ck s
Ġde pend
ant age
us ing
Ġwhat ever
ci al
Ġdra wn
Ġac cept
Ġfam il
Ġread ing
Ġletter s
bo ard
Ġeas ily
Ġlaugh ing
b re
b ack
Ġf illed
Ġhe alth
Ġp it
ap art
Ġag re
ab ility
ĠRostÃ³v s
Ġlau ghed
Ġtou ched
Ġlaw s
Ġpri v
ed om
Ġk ill
ĠC arton
Ġbl ess
te en
Ġcl othes
Ġmar ry
pre sent
H ere
P rincess
i ant
en ces
le nd
Ġp rin
se en
Ġst op
ri es
Ġse ized
ne ver
Ġbo x
cons cious
Ġgre en
Ġfan cy
Ġemp lo
ortun ity
0 0
H er
c ise
Ġs im
Ġbe low
im ate
the se
Ġun cle
be ing
ish ment
Ġpass age
iff erent
Ġap art
Ġcond ition
Ġscen e
Ã¡ty ch
m ight
Ġp ath
Ġp ipe
Ġe ld
ĠH Ã©lÃ¨ne
ĠB y
ant ic
Ġex ec
Ġun known
Ġpe culiar
lp Ã¡tych
Ġtra ve
Ġwhis per
Ġswe et
Ġacqu aint
Ġdread ful
Ġcop y
udden ly
e ch
k ind
m ÃŃt
o pe
Ġs orrow
Ġwould n
ru ct
Ġgr ow
Ġtr ouble
fe el
Ġboat s
Ġprison ers
Ġparticul arly
d ing
p ers
it er
Ġm ars
Ġm otion
Ġp aid
Ġbe at
st ill
Ġsa ve
th rough
ist s
um e
Ġcomp l
Ġgra ve
Ġconv ict
Ġspir its
Ġmonth s
W here
a ld
c r
i kh
n on
p ass
r id
Ġa uth
Ġs li
Ġf urn
Ġc oun
or ies
es ides
Ġp en
Ġl an
Ġe arn
Ġas king
Ġst one
Ġse ven
ĠP ocket
Ġsu sp
ak ed
os ite
Ġsome one
Ġbr idge
Ġgr own
Ġser ious
Ġcle an
Ġlist en
Ġinf lu
Ã« v
pla ce
Ġentire ly
ikh Ã¡y
e le
i osity
m ind
Ġb are
Ġf rown
le y
Ġbe ll
st airs
Ġth ick
Ġre ck
ĠB agratiÃ³n
Ġno ble
Ġhapp en
Ġte a
Ġfoll ow
Ġdark ness
pl ay
ĠY our
Ġlearn ed
ĠPÃ¡v lovna
er ning
it z
Ġp un
ic s
Ġg ro
Ġre v
Ġnot e
Ġst aff
ter day
Ġde lic
ĠC atherine
Ġwor se
Ġsp read
Ġlike ly
Ġco vered
Ġgreat est
Ġroom s
Ġput ting
Ġsupp er
Ġdro ve
ĠY et
D on
b el
u es
re me
en ne
ĠS perm
Ġbl ind
ikhÃ¡y lovna
z z
Ġ ver
in er
Ġc at
Ġc iv
se emed
Ġst ir
Ġne g
Ġv ain
la w
Ġun f
Ġatt empt
Ġbro ke
ash ion
Ġimag ine
ĠMad ame
ouri enne
F rom
d on
z en
it ated
on apart
Ġp ressed
Ġl ab
Ġyou th
Ġsu gg
ĠD arnay
Ã¡ gin
Ġbre ast
Ġmeet ing
Ġmention ed
oint ed
m ust
Ġs ick
is her
Ġhe aring
an ch
Ġp al
Ġn ur
Ġbo ard
so ci
Ġwal king
Ġcompan ion
Ġinterrupt ed
a way
i od
m ade
t al
on se
Ġc ity
an other
ow ers
Ġne arer
op ch
row s
Ġem pt
Ġpresent ed
Ġcur ious
Ġass ist
Ġcond uct
ey es
ĠCh rist
c our
f ire
h um
er v
Ġg en
ĠT ell
am ma
ant ry
ous in
ost opch
Ġch o
Ġend eav
ron ic
ĠRussi ans
Ġstru gg
Ġquiet ly
Ġsy mp
Ġexact ly
L et
N icholas
f a
o h
Ġt reat
it able
Ġp ac
Ġha m
ut ed
ĠB r
Ġv irt
el ess
art her
Ġout side
Ġany body
Ġco ff
Ġbo ots
hy s
Ġcle arly
Ġsound s
Ġresol ved
Ġrapid ly
Ġast on
i us
s es
er k
Ġd ust
Ġre qu
Ġas ide
ad v
Ġsa fe
ĠM onsieur
ck y
ant ucket
Ġthr own
Ġper iod
Ġpoint ed
Ġlist ening
Ġgir ls
Ġpap ers
ĠEng land
ajest y
Ġauth or
ostopch ÃŃn
f riend
m ission
Ġt a
in c
ing u
Ġm ort
Ġf al
Ġh id
Ġh int
Ġha ll
ot ed
Ġe ars
ri ly
Ġse at
Ġsu per
to p
ne ur
Ġbeg un
Ãº sh
Ġlo ss
Ġbelie ved
ĠOn ly
cha nt
Ġtou ch
ĠAlex ander
onapart e
c ast
c ies
ro du
ĠM ar
Ġli ked
Ġpo cket
Ġatt ent
att ered
Ġhor ror
ĠX I
Ġconc ern
run cher
Ġfav our
Ġperfect ly
iat han
B y
F rench
l ine
re ct
Ġc eas
at ure
ent h
ill s
est s
ak er
Ġcar ry
co at
Ġaff air
Ġche st
Ġaw ait
Ġinc reas
Ġmis erable
e es
f irst
m oment
Ġt ail
Ġd rink
ay s
ol og
ip s
ac he
Ġte eth
gg ing
Ġfre edom
Ġbes ides
Ġjo ined
Ġconv inced
Ġfing er
Ġpeas ants
Ġwit ness
! ...
en ance
as ons
Ġme l
qu e
Ġsh own
ĠW ho
ĠF l
ĠJ ust
Ġgl ancing
less ly
ops le
Ġadm ir
Ġut ter
Ġsimp le
ĠLuc ie
U n
s ub
Ġb ird
is m
st ep
ĠP er
th ose
ĠC runcher
Ġsp ring
Ġpr ide
Ġvo y
Ġpoint ing
no on
Ġquar ter
Ġprep ared
sat isf
mÃŃt ri
a ign
u ation
he ard
Ġm ast
ĠI nd
Ġon es
Ġall ow
il ar
Ġcon sequ
ĠN or
Ġj aw
for d
ons ense
con c
ract ed
cei ving
Ġopp ortunity
Ġexcell ency
Ġpa used
Ġtrem b
* *
a wn
w ent
w ind
Ġ ign
Ġw he
Ġw ond
er t
Ġb ig
it al
ar se
Ġp ack
ĠB al
Ġr ich
ig neur
Ã¡ ry
Ġdis co
Ġimp ro
Ġcomm unic
ev na
Ġhon our
Ġopp osite
Ġexpl ain
Ġben eath
ĠMad emoiselle
Ã©n sk
c ase
Ġb read
Ġf la
Ġd i
st e
ad ing
Ġall owed
Ġdo g
Ġv ent
ĠC om
ag ue
Ġgo es
Ġmatter s
Ġfall en
Ġproper ty
Ġsch ool
ĠGeor ge
. )
d el
p he
t ake
v ation
Ġw ore
Ġm akes
ge l
em per
Ġv ast
Ġno dd
ru ction
Ġtw ice
Ġpers u
oun ced
Ġext ra
Ġlif ted
Ġanx ious
ĠPar is
Ġunif orm
Ã¡ry a
e ed
f ound
s ame
t ic
w r
Ġo ri
is to
Ġp ract
Ġha bit
Ġbe ha
Ġe lect
ain ted
th y
ĠS und
Ġsh ot
ĠL ong
Ġgr oup
ord inary
Ġpr oud
Ġexc ited
ash Ã«v
wor k
Ġcross ed
Ġabs olute
ĠAust ri
i able
m ol
m ber
at ic
im ents
Ġsa v
ĠB ar
ol onel
Ġdis app
Ġgr at
Ġpla ces
Ġsupp osed
Ġcur iosity
Ġext reme
look ed
under stand
Ġarri val
cons id
Ġca used
E N
Ġs pect
Ġf arther
as ure
Ġin no
Ġp et
Ġl od
se c
ere r
ĠT ur
Ġr ub
ep ing
of t
Ġpass ion
Ã© ev
Ġapp re
Ġconf ess
Ġfore head
Ġchar ge
O f
f s
it c
Ġm agn
Ġf r
Ġhe ro
ar row
qu is
Ġal ive
Ġke y
Ġmoment s
Ġmo on
ĠĠĠĠĠĠĠĠĠĠĠĠĠĠĠĠ ĠĠĠĠĠĠĠĠĠĠĠĠĠĠĠĠ
Ġforgot ten
onse igneur
r ounded
t w
w hale
in st
Ġb and
Ġb ab
Ġp ushed
ĠM ikhÃ¡ylovna
ĠW opsle
Ġqu e
pt ion
sh ire
Ġwr iting
Ġinst antly
su pp
Ġwind ows
Ġshout ing
Ġdesp air
Ġgaz ed
Ġsusp ic
L ook
m it
m ar
in Ã³
re ason
ha nt
Ġf ate
Ġc ook
Ġst ick
ĠA lpÃ¡tych
ra ph
Ġsh ri
Ġr ain
ry ver
od inÃ³
Ġtell ing
up id
Ġpresent ly
Ġact ivity
Ġwait ed
Ġfre qu
Ġsign ific
ĠWh ite
Ġgun s
Ġcand le
olunt arily
Ġdeg ree
? âĢĶ
g ain
he st
Ġb an
Ġd ull
as hing
ĠB ourienne
Ġex ceed
us es
Ġun com
Ġj ump
Ġcan non
Ġgr owing
Ġrep ro
av al
ign ed
Ġres p
And rew
ĠSt reet
Ġdist inct
Ġter ror
Mr s
Ġrel ations
Ġdep art
Ġprom ise
Ġtre es
happ y
Ġfif ty
Ġaccord ing
Ġori gin
b or
c al
l ast
t ook
v ious
Ġf ond
Ġhe ight
Ġl ines
il es
ĠN antucket
ig s
ĠR ostopchÃŃn
Ġatt end
Ġadv ance
Ġfore st
nat ural
Ġsimp ly
Ġburn ing
Ġharpo one
Ġneigh bour
Ġdeterm ined
Ġfamil iar
V ery
i ven
n y
Ġw retched
ha l
Ġc ousin
Ġin cl
Ġre jo
ke y
ĠF rance
ne cess
ful ness
Ġrep resent
Ġdes cend
Ġind ic
ĠTh ough
Ġwha ling
Ġhistor ians
Ġhig her
Ġavo id
mÃŃtri evna
itc hen
S Ã³nya
c ceed
g entle
h ost
y er
Ġ id
Ġp iece
ic ing
âĢĶ _
Ġkn ock
Ġwe ather
ap ed
ru d
Ġbl ow
Ġspe ech
ci ent
ail ed
Ġadv antage
Ġfin ally
Ġsuff er
go ing
ib ly
Ġmil itary
Ġyes terday
Ġsatisf ied
Ġemb ra
Ġlean ing
Ġinflu ence
nd ered
Ġm ood
Ġf ood
Ġc ustom
Ġp arent
ce an
ir m
am ing
ĠS h
Ġwe eks
Ġun expected
ĠG ard
be cause
age ment
Ġbo ld
Ġfl ank
Ġadd ressed
Ġconf idence
Ġappro ached
ĠCount ess
Ġconc erning
Ġfort une
Ġearn est
mol Ã©nsk
c amp
i or
j un
Ġs perm
nd ing
ha med
Ġn ice
al ways
ur ally
Ġst ro
Ġse ated
Ġal though
li es
Ġsha king
Ġimp ati
Ġwat ching
Ġadd ress
Ġaw ful
peri or
Ġdirect ly
every thing
Ġmut tered
c il
s y
re sh
Ġm ess
Ġf it
Ġc e
Ġh ouses
Ġth reat
if y
ĠM o
Ġfa ith
Ġtim id
Ġsm ell
iz zy
Ġhar m
po ssible
Ġkeep ing
cha ir
Ġdri ve
Ġprom ised
Ġsum mer
Ġcamp aign
Ġesc ape
Ġexperi enced
ker chief
Ġempt y
a ul
l ife
re en
it iz
en ge
Ġd om
Ġin n
Ġv es
Ġcom r
ĠN ew
Ġoff ered
ark s
Ġspe cial
ath y
Ġwat ched
Ġsil ently
Ġdec la
Ġcontinu ally
Ġhur ry
Ġsuff ering
Ġcol onel
ĠQue en
Ġmur der
tern al
Ġprof ess
Ġinform ation
Ġceas ed
u el
he ld
Ġf et
Ġd ressing
Ġp ati
Ġl ar
ic ient
Ġth ro
ro v
Ġso fa
Ġcon cl
ous ed
ĠC ome
Ġfe e
Ġoff er
ign ity
Ġtr ust
Ġtr oub
ĠFrench man
Ãº khov
hab it
Ġtou ching
Ġgener ally
Ġfal se
ĠFl ask
J ust
b ly
c or
i est
p ut
ha ving
Ġb ank
Ġm ud
Ġf old
Ġh ide
Ġd am
Ġd ying
ll y
Ġre ve
ver ing
ĠO ld
Ġdist ribut
Ġunderstand ing
ĠBor odinÃ³
Ġmus k
Ġmus ic
ĠChar les
K utÃºzov
z Ãºkhov
Ġ Z
Ġp ause
ic ha
ve lo
Ġst ation
her lock
ĠM Ã¡rya
am b
Ġun eas
ig hed
ie ces
Ġsp lend
Ġrem oved
Ġbl ame
ĠK ar
Ġint rodu
ĠSt ryver
Ġinter val
Ġrec oll
Not hing
Ġhop es
Ġbott om
Ġcru el
Ġacquaint ance
Ġign or
c lo
Ġin ev
Ġg ame
ĠT H
qu ar
pp er
ound ation
ĠW here
Ġli ves
Ġsome where
Ġsp l
be gan
Ġrem ind
Ġgr ass
Ġper p
Ġcont empt
atter y
Ġcar p
men se
Ġconsid ering
Ġcare fully
Ġsur rounded
Ġdifficul ty
quest ion
Ġobli ged
Ġbri ll
ĠSund ay
Ġves sel
N apoleon
l ot
r Ã©
s aw
Ġt emp
Ġw id
Ġb or
Ġl uck
id ently
Ġy ard
Ġas hamed
Ġfor ced
ĠM ajesty
am s
th ree
Ġv ic
Ġar ran
Ġway s
Ġdist ur
Ġvis ible
Ġcirc le
Ġexpl an
pleas ant
Ġpull ed
Ġhuss ars
. âĢĶ
E very
c alled
r at
he art
Ġb att
Ġh un
Ġd ry
Ġre ceive
ir ing
ĠThe se
Ġli ber
ĠC an
Ġother wise
ac le
oll ow
Ġint ention
leas e
any thing
do or
Ġabs ence
off ic
Ġregard ed
Ġdestro yed
anch oly
H aving
J oe
r ain
Ġ ice
Ġt ong
Ġt ast
Ġb od
Ġp hys
Ġl it
Ġy ield
Ġr ul
Ġdo ors
Ġman ners
ĠD mÃŃtrievna
Ġro lled
Ġar g
Ġj ack
ĠO f
Ġour selves
Ġapp arent
Ġdist ingu
Ġsw ift
har d
Ġprev ious
ÃŃt ski
Ġcomplete ly
ivid ual
Ġvoy age
Ġbab y
. _
c irc
d om
m aster
r and
Ġw et
re sp
Ġf ashion
Ġn ine
Ġas soci
ro se
her self
Ġmy st
ant ed
Ġcom b
ĠF oundation
ĠL ook
ĠJ erry
ord er
Ġsc ream
Ġcont in
Ġste pped
Ġmis ery
Ġjo in
Ġtri ump
Ġpol it
Ġequ al
Ġbu ild
Ġpursu ed
Ġagree able
Ġgallop ed
Ġpriv ate
Ġreck on
D enÃŃsov
k y
k ov
t able
w oman
Ġs la
Ġm ild
on t
Ġd ance
Ġl amp
ad ually
ur ope
Ġfor ces
Ġk itchen
Ġhand ed
Ġim m
Ġafter noon
ran g
Ġgr as
Ġent reat
Ġreg ret
Ġconf used
Ġship s
Ġopen ing
Ġevid ent
Ġperson al
ĠBe cky
Ġben ef
Ġbit ter
erg y
ustom ed
Ġexperi ence
Ġmem ory
Ġhang ing
Ġcab in
m ay
t ell
re es
Ġc oup
an cy
Ġth irty
ĠS molÃ©nsk
Ġsh ock
Ġr um
itt y
os pit
Ġam id
Ġsp out
ĠG o
Ġbec om
Ġcount enance
ci ence
Ġev il
Ġdisc overed
Ġdisc uss
Ġdeep ly
Ġtran qu
Ġexcell ent
Ġfle w
R ussi
b ow
f ac
g ot
i en
m is
Ġw ound
Ġf isher
Ġto ss
an ing
Ġp h
Ġg est
Ġsu s
Ġsu cceed
Ġshe d
Ġno body
Ġar range
Ġen orm
ink ing
Ġfir ing
Ġimp ression
Ġspe ed
Ġadv anced
oun ce
Ġfall ing
Ġdirect ed
rum m
Ġshad ow
Ġsim ilar
aval ry
ĠGard iner
G od
c ap
f elt
i ving
m other
Ġw inter
Ġo il
Ġb owed
Ġd er
Ġin j
Ġg a
ur s
Ġst airs
Ġst upid
el ve
red it
Ġno ise
Ġro of
ag ree
ĠG eneral
ep t
Ġoff ice
Ġwat ers
you ng
Ġreturn ing
su ff
Ġsister s
Ġneed ed
Ġvisit or
Ġest ab
Ġimport ance
Ġmur d
Ġslight ly
bour n
ĠWill iam
Ġprin cip
lot te
rumm le
G o
f am
g ment
l t
m or
p ri
r ors
z ing
Ġa ud
it es
Ġm ill
Ġf ully
Ġto w
Ġd run
Ġp ill
Ġl aughter
âĢľ _
Ġre ach
Ġse as
th ings
ĠB esides
Ġsh ore
Ġkn ees
han k
Ġwor n
ĠĠĠĠ Ġ
Ġpart s
Ġper form
Ġcl erk
Ġclo ak
mer ic
Ġdro p
Ġplain ly
Ġgri ef
Wh ile
Ġprodu ced
Ġpor ch
athe red
H ave
b us
l m
u ed
y ard
Ġt emper
Ġs igh
Ġm ot
on ah
Ġc ott
Ġd ue
Ġn arrow
Ġfor ty
Ġst ar
Ġr is
Ġyour s
au nt
Ġsp are
Ġcall ing
Ġconsid erable
ĠBe zÃºkhov
Ġinterest ing
hand s
Ġcol umn
Ġang rily
Ġbook s
Ġsit uation
oint ment
Ġgaz ing
Ġbott le
Ġcas es
ĠBal ashÃ«v
Ġsplend id
M oscow
y et
Ġ er
Ġw and
Ġw el
Ġs ought
Ġf ier
Ġc ourage
Ġto morrow
Ġh ost
Ġhe s
Ġp ick
Ġe ase
Ġy ellow
Ġu r
Ġwh ist
ĠT wo
ĠP ol
Ġk ing
Ġli es
ĠC olonel
Ġcould n
Ġsp ace
Ġim mense
ac ity
Ġcomp ass
Ġthr ow
com mand
ser v
bo at
Ġhop ed
Ġhurried ly
pan ied
Ġwis hes
Ġintell ig
D Ã³lokhov
c ol
c ond
f all
h on
t ow
Ġ ic
Ġ ess
Ġb ore
Ġb ul
Ġf o
ent al
Ġon to
Ġre asons
Ġsa cri
the less
our s
ĠD e
Ġwhen ever
Ġam az
Ġpro ve
omet imes
Ġmight y
Ġgu ess
Ġhigh ly
Ġsuff ered
Ġwood en
Ġwonder ful
Ġsatisf action
Ġ18 1
occ up
Ġvict ory
Ġeld er
Ġnodd ed
D id
Q u
d in
r al
t aking
v Ã¡n
z h
in y
Ġf aint
Ġl oose
Ġde b
Ġr ing
rin king
Ġun less
Ġfa il
ĠG ood
Ġim per
Ġsw im
Ġbus y
gr ound
Ġest ate
Ġtor ment
aj or
Ġreli ef
B ook
H uck
b oy
c ur
i um
i vers
m atter
Ġo cean
Ġb as
Ġm atch
en ger
Ġc ost
Ġto day
at or
at son
Ġn onsense
Ġl ose
ch ild
pe ople
Ġsu perior
Ġr ust
Ġal together
ĠD ick
Ġwor ked
Ġfa ult
ĠE v
Ġsee k
ÃŃ kh
tain ing
Ġgr ate
Ġyoung er
Ġadd ressing
Ġref er
Ġgeneral s
fort une
Ġplay ing
Ġserv ant
Ġexpl ained
Ġve x
cont inu
again st
Ġhast ily
ĠGu ards
Ġcart s
Ġlan gu
Ġciv il
ÃŃkh on
A re
k ward
z ed
Ġ 3
Ġc ards
Ġre ceiving
Ġst at
Ġst air
Ġmy ster
ven ge
ure ly
os om
ab les
int erest
Ġcar rying
Ġsub st
Ġcor p
Ġkind ly
Ġact ions
Ġind ividual
Ġrel ation
Ġappro aching
Ġheav ily
Ġwall s
Ġsoft ly
Ġconscious ness
Ġexist ence
fortun ate
Ġbrill iant
b ook
e al
Ġw o
Ġb le
Ġp air
âĢĿ âĢĶ
Ġde lay
em pl
ation al
Ġwe ar
Ġwe ight
ĠD rummle
ie ve
ire ct
Ġdis appeared
Ġgr ay
Ġcomp re
Ġreg ular
Ġhu ge
Ġfind ing
Ġadv ice
Ġaw are
gr at
Ġplay ed
ĠHow ever
On ly
mb ers
Ġut tered
appe ar
Ã¡n ski
Ġremark able
Ġanim ated
Ġjud ge
Ġpossib ly
turn ed
Ġgen ius
Ġelect ronic
Ġinno cent
Ġarg um
Ġenorm ous
O O
O R
b out
d one
m itted
s ar
t oo
v i
w al
re f
re nt
it ure
Ġm al
Ġc avalry
or se
an im
Ġg host
ra h
Ġle aves
per Ã¡nski
os op
ĠJ onah
Ġsha me
wh ite
Ġdes per
com mend
Ġoffic ial
po int
bo x
Ġide as
Ġprev ent
Ġpol ice
Ġprof ound
Ġpeas ant
Ġcheer ful
step s
igs en
Ġsacri f
N ever
i pp
r ust
w hether
w ater
Ġt ree
ed ing
is c
Ġg ained
Ġre quest
Ġst out
ke eper
ĠS ir
Ġsh oes
Ġcon ception
Ġv ague
ĠD an
Ġwor st
other s
ĠE urope
ĠO F
Ġbr inging
wh ole
Ġint ent
Ġhapp ens
Ġmar ch
Ġdist ant
su red
Ġmon ster
Ġinf antry
Ġass ure
br ought
Ġroad s
Ġserv ants
Ġvisit ors
Ġfort un
Ġstri ke
ĠXX X
Ġlean ed
ĠLuc as
Ġsymp athy
oh n
Ġincreas ed
enge ance
C ount
W ill
e ither
g ive
g ress
i ally
r ous
r ate
w ait
y al
Ġw ishing
ha lf
it ement
Ġc hat
ld om
il ÃŃ
ĠS p
Ġsh op
Ġcon cluded
ol ved
Ġal arm
our ing
ud ge
ild ad
less ness
so ld
eth od
ev iathan
amp le
Ġran ks
Ġstrong er
yd ney
Ġdanger ous
ĠWh ile
Ġdelight ed
bet ween
Ġhig hest
Ġaband oned
ele g
Ġvirt ue
Un cle
Ġextra ordinary
ĠLong bourn
Ġsav age
? ...
g ar
g eneral
m ond
v iew
y r
Ġs ank
ha ll
Ġm a
Ġh ut
Ġg ay
ur d
ri ved
Ġse vere
ck ing
Ġsu it
ge ant
Ġr ise
Ġex ha
Ġwor king
Ġpro ved
ac hes
Ġent ertain
com ing
Ġins ide
Ġstrong ly
Ġdan cing
ific ation
umb ling
Ġlead ing
Ġpossess ed
Ġhuss ar
Ġmel ancholy
Ġparent s
Ġexplan ation
M ary
l ord
p es
t aken
u lf
Ġ 4
he nd
Ġw ed
Ġw arn
Ġs ong
Ġs way
Ġo ars
ou ch
Ġc ro
Ġin formed
Ġn ames
im in
Ġg athered
st ra
ent ial
et her
ur ance
Ġan ger
Ġis land
ĠA m
Ġr iding
us ual
ĠW atson
Ġun conscious
os itions
ĠL izzy
Ġtw elve
Ġus ually
Ġch in
ach ment
Ġgreat ly
Ġres er
Ġapp ointed
imp ort
Ġste ady
Ġfav or
Ġconn ection
Ġgloom y
Ãºsh in
necess ary
b in
p ost
Ġw ake
re ly
Ġp ra
st one
Ġre ar
Ġas sured
Ġst ret
Ġsa ved
ĠM amma
ĠS ee
ĠB onaparte
ard on
ul s
ul ous
Ġr ate
ol ation
Ġwe ary
Ġab sent
ag ger
ĠE ven
ov ich
sh op
Ġpl ans
Ġcha se
Ġent ering
Ġke en
ans w
ev ol
ser ved
stand ing
Ġlight ed
Ġgu ests
Ġadm it
app ro
Ġmur m
Ġ18 0
clud ing
Ġmid st
Ġpict ure
ĠTell son
Ġabsolute ly
; âĢĶ
M ad
e ff
f oll
k new
l ad
s ister
Ġs in
Ġo be
Ġb ull
Ġc atch
ar med
at ures
Ġy ards
ir th
all ing
ĠS uch
ul ated
Ġkn ife
ect ions
Ġsp rang
Ġgr adually
so on
Ġint ended
Ġfl ight
Ġfl ushed
Ġacc ustomed
Ġser fs
Ġsle e
head ed
Ġaw kward
Ġhelp ed
Ġrec alled
Ġfin ish
Ġexpect ing
Ġnecess ity
Ġforg ive
Ġstri king
Ġanx iety
part icul
Ġaccom pl
Ġwa ist
Ġpossib ility
acqu es
Al ice
Ġcopy right
Ġthro at
ether field
: âĢĶ
l in
l eness
o on
o pp
u ce
it ive
Ġm ate
Ġf lying
Ġh ospit
Ġd ared
Ġd ignity
le ction
Ġp op
om en
ĠI vÃ¡n
ut ation
Ġst ock
ĠM onseigneur
ĠM icha
ĠA d
Ġso vere
Ġsu ite
ĠB erg
Ġde cl
Ġsh owing
ĠD id
ĠF ather
be hind
Ġdes ired
Ġatt ached
Ã© ra
aught ers
Ġconf usion
Ġexc han
Ġhur t
Ġtran sp
Ġgre y
Ġgold en
Ġdemand ed
Ġsugg est
ĠMo by
Ġsovere ign
A R
S ome
c overed
d et
l or
p on
p ol
u zz
v ÃŃtski
Ġa head
in v
is p
ing er
Ġc redit
es vÃŃtski
ot ter
Ġst orm
ĠA meric
il ty
ul ie
Ġv ac
ĠC on
per haps
Ġsome body
Ġam iable
Ġret ired
ret urn
ens ive
ict ion
oub t
my self
Ġfin al
Ġchar ming
Ġinqu ired
Th ough
Ġequ ally
Ġed uc
Ġru in
Ġgovern ment
Ġagre ed
ĠMar quis
bus iness
OO K
a ly
d ark
g est
Ġt ired
Ġw aves
Ġb attery
Ġin habit
Ġas pect
Ġse ldom
ĠM e
ill ery
ĠH ills
Ġsh irt
Ġup per
us i
Ġkn ee
The se
Ġro pe
os en
Ġcha p
Ġgl ory
Ġjust ice
Ġra ising
Ġser ve
Ġwant s
Ġmar ked
Ġkind ness
Ġste ad
Ġhon est
Ġinterest ed
umb led
ug ust
Ġcreat ures
Ġsad d
Ġburn ed
Ġaccom panied
Ġeffort s
Ġrepro ach
ĠTH E
C an
P er
T ell
b bed
l ar
m od
m ake
s il
w ed
Ġt akes
Ġa rose
Ġp isto
om in
ĠI ly
ĠM ay
ĠH ave
ĠH aving
ĠP eleg
th s
ĠS at
to ld
Ġr ide
Ġne phe
Ġdo gs
ĠThe ir
Ġex er
ast ed
Ġag itation
ĠHe aven
Ġpre cious
Ġdis play
ĠO ur
man y
sha ll
Ġcomp ar
Ġturn s
Ġ( _
com pre
Ġcle ver
Ġpers ons
Ġtri f
Ġcross ing
sm ith
Ġpol ite
Ġdesp ite
Ġcloud s
ĠCossack s
pers on
Ġexceed ingly
itiz en
Ġarran ged
Ġtong ue
Ġnephe w
d ro
l ished
m ist
p rom
u le
w ords
Ġw ra
Ġw ag
Ġb osom
it ch
it ating
Ġf ly
Ġhe at
ar ling
at ory
Ġp ress
Ġp icked
Ġn erv
Ġg ives
Ġe re
Ġe mer
ent er
al ing
ur Ã¡gin
ri ot
ĠA h
ĠP l
ĠS id
ĠS perÃ¡nski
Ġcon sent
Ġwe alth
Ġun happy
Ġro ll
op en
Ã¡ r
Ġfe ver
Ġfe ared
Ġpre par
ac les
Ġpart ed
Ġthr ust
Ġsc ra
Ġra pt
iff erence
Ġinst ruct
su ed
fort able
Ġfact s
ib ility
Ġdri ven
Ġoccasion ally
Ġharpo on
Ġsepar ate
Ġagre ement
Ġtremb ling
Ġdepart ure
Ġcoup le
ilÃŃ bin
B or
P ro
f ar
k Ã³v
p any
y Ã¡
Ġa v
in n
Ġc aut
Ġh ollow
Ġd ip
Ġd ouble
as ked
Ġp hil
Ġha te
ic les
ere ne
Ġan cient
if ying
ĠM ore
am ent
ĠH ad
qu ite
ĠB ildad
Ġwho lly
Ġwe aring
Ġpro spect
ru e
Ġch im
Ġspe nd
Ġtr ain
Ġser geant
Ġlo g
Ġsoon er
Ġcap able
Ġhor iz
Ġdiff erence
Ġsle pt
Ġadv ent
head s
Ġnat urally
Ġdet ails
Ġdri ving
Ġmer ry
Ġremain s
acc ount
gl ass
Ġworth y
Ġcoach man
Ġfro st
Ġeager ly
arr ass
ĠOr l
hens ible
Ġque er
mor ning
Ġwo lf
h ist
u ke
w he
w ood
y es
Ġw rink
Ġs inging
ha les
Ġm our
Ġc her
Ġd aughters
Ġl at
Ġl un
Ġbe li
st ru
Ġsh ud
Ġcon ve
Ġv ig
Ġal oud
lo ve
lo ved
ie nd
Ġsome how
ĠL e
ose ph
Ġpro cess
wh y
Ġthr owing
Ġsc ience
ĠSt ates
Ġacc ident
Ġlo ving
Ġlove ly
Ġheart s
Ġhor rible
Ġsw ell
Ġran k
Ġche eks
Ġact ually
Ġinv oluntarily
Ġexc use
ĠPro vis
vo ice
ĠBenn igsen
Ġwood s
Ġdef inite
Ġut most
Ġmad ame
Ġed ge
Ġpursu it
Ġaband on
cour se
Ġjump ed
Ġapparent ly
resp ond
agree able
) .
B OOK
I L
N D
b ro
c oll
c har
d est
f our
f oot
i k
Ġt ied
Ġb al
or ous
Ġg ently
Ġe Book
Ġth under
Ġre commend
Ġst aring
am ong
ore s
ĠH igh
ĠS aint
ul arly
Ġex ample
Ġag itated
Ġun fortunate
Ġhand kerchief
ov es
ty ard
Ġper mission
Ġatt ended
Ġent h
Ġtr ad
Ġcl ass
Ġhouse hold
Ġappe ars
Ġmor al
Ġsupp ort
Ġcap ital
Ġche ek
Ġind ifferent
Ġcr ime
Ġobser ve
them selves
Ġconsider ation
Ġca uses
emp le
ĠChar lotte
fer red
Ġrub les
Ġperp lex
D ear
G utenberg
b ing
b oth
m et
m ast
p ic
r ated
t ra
w ild
Ġw in
ed s
Ġb ows
es c
Ġp ieces
ad ron
Ġst ared
ri ages
ĠT ÃŃkhon
Ġso ot
ĠS herlock
Ã¡ s
ount ain
ac her
Ġbr ow
ign ific
ĠK itty
atÃ¡ ev
Ġra ce
cl am
Ġsec ure
Ġsw all
Ġinf inite
Ġevid ence
ĠTh ree
ater ial
Ġchief ly
Ġcol our
Ġmist ake
Ġacqu ainted
Ġtor n
Ġdestro y
resent ly
Ġconn ected
Ġdescri bed
Ġreflect ed
gra ce
bre ak
Ġnur se
Ġhid den
ĠAustri an
Ġdecla red
circ umst
d s
f in
f ive
l om
o or
s uddenly
Ġ ident
he arted
Ġs our
Ġs ighed
Ġb ree
Ġm ajor
Ġm ethod
on ce
Ġre lie
al ong
Ġfor ge
Ġse v
ĠH and
ĠH ouse
all s
ble m
Ġr ough
ant ing
ol id
ist ing
ĠN etherfield
Ġun pleasant
Ġany where
ĠL eviathan
ĠJ ohn
ire s
Ġen v
Ġch oose
les h
Ġdes ign
Ġint imate
Ġcons cience
ĠSt ill
ĠV Ã©ra
Ġlo ck
Ġte ar
ser ve
Ġdra gged
Ġbed room
Ġrec overed
Ġass umed
Ġthousand s
Ġprev iously
Ġeng agement
Ġmist aken
Ġresol ution
Ġsol itary
ĠAr ch
Ġaston ishment
Ġconcern ed
Ġgrat itude
Ġharpoone er
Ġbatt al
vi our
P et
T wo
T hank
b rows
Ġt est
Ġb ill
Ġf ill
Ġf ra
Ġf em
Ġf ulf
Ġc ell
Ġc ord
Ġc laim
le ft
Ġl a
Ġl ou
ĠI II
Ġbe ast
im on
ver t
Ġas semb
al most
Ġnot icing
ĠT sar
ill e
ck ets
ĠS ch
ĠB o
Ġr ush
Ġne arest
ĠĠ Ġ
ap s
Ġsp y
ĠE r
Ġpre cise
ĠJ acques
ĠJ ulie
Ġsha re
Ġch osen
ren ce
Ġcont ent
Ġatt ract
Ġob vious
Ġfriend ly
Ġinst ance
now led
Ġfam ous
oun ter
Ġsk in
Ġmis fortune
Ġsign s
und red
Ġclose ly
gu ard
Ġcrowd ed
Ġchar m
medi ate
Ġtri al
Ġpain ful
Ġdest ruction
Ġresol ute
Ġsqu are
Ġsens ible
Ġanim al
Ġsn uff
Ġguard ian
Ġloud ly
Ġaccept ed
Ġconvict ion
Ġdelic ate
Ġstrugg le
ĠPer haps
Ġsuspic ion
Ġprofess ion
Ġmyster ious
Ġwed ding
Ġbeli ef
Ġenth usi
A ye
d ep
h ur
i ved
p osition
s ur
t i
t ure
w l
Ġ âĢĶ_
Ġt ask
Ġs nat
Ġc la
Ġd ed
Ġp owers
om s
Ġe ch
Ġe ast
ĠT Ãºshin
ĠT emple
Ġme as
qu iet
th ousand
ĠS ometimes
ight ed
Ġsh one
Ġsh ining
Ġcon grat
ast ic
ag raph
Ġfe atures
Ġgood ness
Ġfl at
Ġacc ess
ex c
Ġlo cked
Ġwhale men
po ssess
Ġcor rect
Ġbre aking
Ġrel ated
ĠQ u
Ġimag ined
Ġart illery
Ġfig ures
Ġquar ters
Ġcircumst ance
Ġfirm ly
Ġval ue
Ġcapt ured
Ġham mer
Ġtast e
Ġgest ure
! ...âĢĿ
I nd
b id
m as
s urpr
u x
Ġt ight
Ġa id
Ġa ck
er ous
Ġc rying
Ġd ig
Ġd rown
ĠI I
ic ense
Ġst oo
Ġse am
all ey
ĠS te
ĠB og
un ning
ĠD r
ap er
Ġsome what
Ġus ing
Ġsha pe
Ġevery where
ov na
ĠK urÃ¡gin
att ention
Ġref use
Ġter rif
Ġexc itement
Ġnat ive
Ġinde pend
br ance
Ġsk ill
Ġdev oted
Ġben ch
Ġcut ting
Ġcoll ect
Ġpossess ion
exp ression
Ġintell ect
Ġadmir ation
Ġfrequ ently
Ġinev it
quar ters
Ġphil osop
Ġhoriz on
I S
b u
i pped
k in
l ist
n oe
s ue
t in
t or
Ġt ide
Ġo dd
it tering
Ġm at
Ġc up
Ġd awn
Ġn arr
ow der
Ġg le
Ġre ception
ur day
Ġse arch
pe y
il i
Ġup stairs
ast le
Ġun ivers
Ġbr own
Ġgr im
leas ed
Ġatt itude
Ġob st
iv ory
Ġra ise
ĠIn jun
sp ir
lect ed
nat ured
Ġgre et
Ġimag ination
ler val
str ong
Ġcontr ast
Ġremark s
Ġcomfort able
bet ter
spe ak
Ġviol ent
Ġcoff ee
Ġconcl usion
b es
d aughter
d ifferent
p ret
Ã ¼
Ġb ag
Ġb orn
Ġh ither
or ough
Ġd amp
Ġp il
Ġbe aring
Ġre semb
Ġst retched
ĠT ra
ĠS c
ĠS ydney
Ġcon vers
Ġman aged
ĠN esvÃŃtski
Ġro lling
Ġfa iled
ĠR ight
ĠR ep
Ġpro ject
Ġsha ke
ever al
con versation
Ġend ure
Ġconf ident
Ġcle ared
Ġsw ord
Ġread ily
Ġinv ited
pl ain
Ġfore ign
Ġcare ful
Ġsuff icient
Ġuse less
pend ed
Ġgra cious
Ġsur face
Ġland lord
Ġabs or
Ġbreat hing
can not
Ġcompan ions
Ġweak ness
Ġmid night
Ġmount ed
Ġinquir y
Ġpict ures
ĠUn ited
Ġdeli ber
Ġemplo y
feel ing
Ġmort al
satisf ied
ĠInd ian
tw enty
iven ess
gentle man
Ġdrun k
Ġinhabit ants
pey son
C T
E mperor
I T
Q ue
R E
R e
i ance
n or
s ac
u v
â Ħ
Ġ 6
Ġt end
Ġt empt
it or
Ġc ries
Ġh it
Ġd irty
Ġd rank
Ġd rinking
ow ard
ic i
Ġg own
st ri
Ġher s
ĠM ock
ĠA ged
ĠA unt
ĠH ar
ĠS w
Ġsh ru
ul se
est ic
ort s
Ġj ury
op y
od e
Ġam b
Ġpro of
Ġpro gress
Ġcont empl
Ġimp ress
Ġnight s
Ġfriend ship
ail ing
Ġaff ord
Ġref used
ery ton
Ġstand s
Ġord inary
Ġcond itions
Ġsto pping
Ġear li
Ġlive ly
Ġappro ach
Ġsleep ing
Ġremain ing
Ġstay ed
Ġcra ft
Ġlif t
Ġsett le
bb ing
Ġpull ing
Ġaffection ate
Wh ich
Ġbelong ed
Ġexam ined
Ġsmo king
Ġemplo yed
Ġfurn iture
Ġcoun ter
Ġcoff in
Ġauthor ity
Ġsignific ance
Ġtroub led
Ġ181 2
eal ous
Bor ÃŃs
âĦ ¢
C om
E x
N ext
c reat
d ri
d ig
f re
g iving
w w
Ġt ick
Ġm ir
Ġm ile
Ġm aterial
Ġh ind
Ġd arted
Ġd arling
an ed
Ġp an
Ġp ir
her n
and ed
ĠA ra
ill y
ĠP hil
ĠP olly
ĠB ald
Ġde eper
Ġle ar
ĠN ever
Ġab road
Ġco arse
de ep
Ġent rance
com m
Ġclo ser
Ġinst inct
Ġset ting
Ġfell ows
Ġcour tyard
Ġpoint s
Ġact ed
cri pt
wor ld
Ġill ness
Ġstra w
Ġhuman ity
Ġcontr ad
oura ble
Ġsqu adron
Ġpar agraph
Ġpray er
Ġfif teen
Ġsmo oth
iter ary
mind ed
Ġsugg ested
Ġbird s
Ġdisco very
Ġbuild ing
Ġgrate ful
Ġstair case
Ġnerv ous
A r
h igh
j ud
s ure
u able
Ġt ale
Ġa ye
in f
ha st
Ġb lock
Ġc li
âĢĿ ,
Ġg as
Ġg ather
Ġe h
Ġwith dra
al ities
ur rah
Ġnot es
ri er
if ted
ĠB ank
Ġv ale
Ġli p
ry ph
ap a
Ġar ch
os ure
of ty
Ġsha de
Ġbr ain
Ġrep la
Ġper ceived
te go
Ġra ge
Ġser ved
Ġser ies
Ġser iously
ev idently
Ġsil ver
Ġem otion
Ġste ward
Ġdoes n
ash tego
Ġtru ly
Ġlad s
res pect
Ġbad ly
Ġsum mon
Ġprop os
Ġprop osed
Ġball s
Ġdut ies
Ġrecogn ized
ember ley
Ġbeha viour
Ġextreme ly
Ġfold ed
Ġinterval s
Ġmyst ery
fac ed
ryph on
B ec
C har
N or
O N
S h
f ind
g or
u ced
Ġw est
Ġo h
is k
it eness
as ions
Ġp le
Ġp uff
Ġl ofty
Ġbe held
ot ted
ic le
Ġg ent
st em
Ġst iff
ĠH atter
Ġde arest
em b
em ark
Ġr ow
Ġman if
Ġwe ap
Ã¡ d
ac ious
Ġthan ks
Ġen ergy
ink s
Ġdist ress
Ġel bow
Ġlay ing
Ġcr own
Ġext ent
Ġmove ments
Ġmer cy
Ġview s
Ġformer ly
somet imes
even ing
Ġsing ular
Ġfool ish
Ġcho ice
Ġrequ ired
Ġfr ame
Ġneighbour hood
Ġsucceed ed
Ġcompass ion
Ġexha usted
Ġpisto l
L ord
c ra
c ried
g ate
h ib
l im
l erable
m pt
p ower
u z
u ly
Ġ 5
Ġw icked
Ġo per
er l
Ġb one
Ġb ones
Ġc ere
Ġc ool
es e
Ġp ressing
Ġn igh
Ġl ack
im ag
Ġth orough
Ġre aching
Ġre ndered
ver se
Ġas h
Ġse ason
ĠH un
Ġv ol
Ġar rest
Ġsee king
of ten
Ġpart ner
Ġthink s
Ġbl ushed
Ġbet ray
cl ay
Ġmind s
Ġlight s
Ġcor respond
Ġran g
Ġgu ilty
Ġinv itation
Ġshout s
Ġsent ence
Ġins pect
Ġinterest s
Ġuse ful
Ġobser vation
Ġprep are
Ġprep aring
Ġdiv ision
Ġpat ron
Ġfield s
pr ison
Ġmount ains
Ġshad ows
iver ing
Ġbra ve
Ġconce al
Ġfrown ing
hum an
Ġham m
Ġawait ing
ĠTur tle
Ã©ev ich
Ġuncom fortable
Ġmusk et
Ġignor ant
Ġdistur bed
Ġjack et
Ġsacrif ice
Per haps
Bec ause
M ay
c ross
e en
g ave
n ame
s ince
t ran
Ġthe ory
Ġw re
Ġb lo
Ġm ag
Ġf led
Ġh oo
or g
or able
Ġin ner
Ġp ounds
Ġl ot
ĠI V
st range
ur at
Ġst age
ri ll
Ġsa f
Ġme mbers
to ine
ul ation
Ġdo zen
Ġal oft
Ġwe ep
Ġag ony
Ġro yal
ount ed
Ġmar rying
Ġcar riages
Ġadd ition
Ġaff ected
Ġcommand ers
Ġaw oke
do es
Ġfoot man
Ġcal cul
Ġconc ent
how ever
Ġswe ar
Ġru ined
Ġsail ors
Ġcand les
Ġsepar ated
Be fore
Ġproceed ed
Ġgovern or
Ġcompl iment
Ġresp ons
Ġunexpected ly
Ġcompre hend
ĠMicha el
Ġdip lom
Ġchim ney
ĠOrl ick
Ġcere mon
D uring
b its
f ur
f erence
g ers
g one
m ir
o ked
r ant
u ously
w ife
Ã ¦
he red
Ġw ing
Ġs ize
Ġf iend
or ious
es pecially
ll en
ar ies
Ġp ot
Ġp ace
Ġe ating
Ġre venge
Ġas cend
Ġwh ir
ur red
Ġst ars
Ġse ar
ĠM arch
ĠA re
ĠA ugust
ard ed
ul ate
Ġr ad
Ġr ubb
ant ity
ĠW as
Ġkn itting
Ġun certain
ĠG ryphon
Ġpro c
ru ssi
Ġbeg ged
ond ay
Ġcha mber
ord ered
Ġlast ed
Ġint im
Ġinst rum
Ġansw ering
oub ted
Ġref lection
Ġcor ps
act or
br other
there fore
Ġcond em
Ġdan ced
Ġstrange ly
Ġneed s
Ġmil it
Ġdirect ions
Ġfan c
happ iness
Ġemb arrass
chan ge
Ġpat riot
Ġconst ant
ĠEvery thing
oly te
Ġbri ef
Ġfight ing
Ġdescri be
Ġfat al
Ġhung ry
ĠUn cle
Ġmars hes
Ġtreat ed
Ġconsequ ence
Ġdistinct ly
Ġembra ced
Ġcomr ade
ĠKar atÃ¡ev
Ġbecom ing
tow ards
occup ied
ipp olyte
Que equeg
erl itz
A hab
J ane
d y
w ord
Ġ ivory
Ġs ou
Ġs ke
as m
ar my
Ġp in
Ġp age
Ġha l
Ġl one
Ġl ately
ut ch
Ġg ar
Ġg ain
st reet
ad s
al ready
ere n
oo ls
Ġme asure
ill a
il ities
ĠS e
ĠB ilÃŃbin
Ġdo ct
Ġv ivid
el ix
Ġno is
Ġwe pt
um ing
ĠD eath
Ġun natural
Ġar d
Ġj ealous
Ġsp ark
ab s
Ġpre ced
Ġoff ended
Ġpro blem
ĠJ oseph
Ġpl un
Ġlet ting
Ġsc he
-- âĢĿ
con n
ĠV I
Ġclo ck
read ing
lic ation
Ġstre am
day s
Ġind ifference
Ġsound ed
Ġremem brance
Ġir rit
Ġrepe ating
Ġadm ire
Ġadm itted
Ġeye brows
sm all
Ġele g
Ġport ra
Ġvict im
Ġreli g
Ġtender ness
Ġvan ished
sub ject
wind ow
Ġce iling
Ġfet ch
Ġreve aled
Ġbor z
Ġcontin ue
Ġtriump h
Ġcott age
Ġtorment ed
appear ance
sold iers
Ind eed
C ar
H olmes
P Ã©tya
T ake
b en
b lack
c aut
e el
k i
l ers
l iness
m iss
Ġp ardon
st ead
ent ered
Ġst uff
Ġat e
Ġde ed
ge on
ol s
el se
ist ic
Ġun like
Ġun usual
Ġj oke
op ing
os ings
Ġfe ars
Ġam use
ĠG rand
Ġhapp ening
Ġpr on
Ġend ed
Ġlight ly
Ġstr ict
Ġsle igh
Ġcr it
Ġsure ly
Ġsun k
Ġfour th
Ġsort s
.âĢĻ âĢĿ
umb ers
sm ile
Ġtre asure
Ġlif ting
ĠXX I
ĠXX V
ĠNot hing
Ġru le
hold ing
Ġsail or
ear th
Ġreport s
Her bert
Ġexec ution
cast le
Ġwhe els
Ġorigin al
Ġcomr ades
Ġlar ger
Ġremind ed
ien na
Ġtoss ed
Ġmurd erer
fam ily
Ġdesper ate
compre hensible
A gain
B enn
C aptain
P ray
a ily
b ably
e an
f ig
f uel
f inger
i o
i el
m ove
o ving
r ather
s us
s um
he ss
in qu
in ate
in ity
in ions
Ġw ip
Ġw ise
er al
Ġm ing
Ġd art
Ġin sp
an ger
Ġp ure
Ġn ations
Ġbe ating
id el
ur ies
ro vo
ĠM eryton
ĠM onday
am ps
ĠD uc
ap sed
Ġro b
os es
Ã¡ rovo
ĠE x
ĠG reen
Ġpro vis
Ġim mediate
Ġsm art
Ġen chant
uch Ã¡rovo
Ġbr id
man ner
wh om
Ġpart ies
Ġrep orted
Ġarm chair
Ġbl ank
Ġsc rew
Ġcont ro
Ġres umed
with in
Ġdon ations
ger y
Ġrest ed
Ġind ign
Ġcommand ed
Ġvis ited
form ation
Ġdin ing
Ġfree ly
Ġslight est
Ġdelight ful
Ġhistor ical
let ter
Ġinquir ies
Ġdeser ted
count ry
Ġcapt ure
Ġprot ect
Ġsli pped
Ġfrown ed
Ġdisco ver
Ġcommunic ation
Ġspect acles
Ġappre hens
Ġdescend ed
Ġdom estic
Ġpati ent
Ġwid ow
Ġliber ty
Ġassoci ated
Ġgras p
Ġwel come
import ant
opy right
A nat
G regor
S ay
a ved
b est
d ed
d irect
f ree
f ellow
n es
o c
w ar
Ġ 8
Ġ ing
Ġt y
Ġa ut
in ated
Ġs lo
re ls
ha ired
Ġb arb
Ġb irth
Ġf ountain
Ġc ard
Ġc ave
Ġc unning
as ed
Ġha ven
Ġl ing
Ġl ur
ĠI X
Ġe lo
Ġre ward
Ġre sent
Ġfor ms
ĠT ashtego
Ġso bs
qu et
Ġde l
Ġcon ven
Ġr oused
Ġal ter
Ġout er
ap ers
ive red
ab bit
Ġad op
ÃŃ l
de c
Ġho le
Ġdes k
Ġob sc
Ġcomm itted
Ġfl u
Ġtr ades
com mon
Ġref erence
ĠX II
og raph
Ġmin ister
Ġgra v
Ġarri ve
Ġreal ity
Ġlow ered
pleas ure
Ġdiv ine
Ġesc aped
Ġstern ly
00 0
Ġeld est
ĠChrist ian
Ġta x
olog y
Ġtremb led
Ġwond ered
ĠĠĠĠĠĠĠĠĠĠĠĠĠĠĠĠĠĠĠĠĠĠĠĠĠĠĠĠĠĠĠĠ ĠĠĠĠĠĠĠĠ
Ġknock ed
Ġtimid ly
Ġphys ical
Ġrefer red
ĠSat urday
Ġinstruct ions
Ġack nowled
Ġabsor bed
Ġash ore
B iddy
Y et
c are
d rew
d iff
f lo
g en
g all
r usted
s ol
s ail
w at
re co
re pro
is ible
it ud
en ough
Ġf ix
Ġto re
or ms
Ġd ine
Ġhe nce
Ġn um
Ġbe nding
se a
Ġsa nd
ĠM or
ĠP otter
pe lled
ĠS imon
ĠB our
ĠB rit
Ġr inging
Ġne at
ĠW al
Ġman kind
Ġno on
li ve
un k
ĠD uring
ap ing
ĠC our
ĠL ike
Ġsp r
ĠG en
Ġwill ing
Ġpo et
Ġco ast
Ġthan ked
ick en
Ġgl ittering
atter ing
Ġtr ick
con ven
Ġcl as
ret ch
ĠV III
Ġlo c
Ġste am
ern al
fe et
Ġinv est
Ġblack smith
ĠTh ose
Ġpower ful
ye ars
Ġgra ce
Ġmer chant
Ġjoy ful
Ġdisp osition
Ġfort night
Ġsad ly
Ġcra ck
Ġshar ks
Ġgaz e
Ġbu y
Ġstart ing
Ġjud gment
say ing
Ġmod ern
Ġcent re
Ġneigh bor
Ġbless ed
Ġexec uted
Ġmotion less
Ġhint ed
Ġimpro ve
Ġuneas y
rÃ© mond
Ġdistingu ished
Russi an
Ġfisher y
Ġph r
Ġintellig ence
Ġstead ily
Ġwra pped
ĠHand el
Ġvale t
Anat ole
rÃ©mond e
A m
L E
P ip
S ee
U T
e em
e au
f ish
h ome
l an
l ance
m ates
r ot
s ch
v ol
v iously
v iathan
w his
Ġt ack
Ġt ip
Ġt aught
in a
Ġo ak
ou is
Ġm ajest
Ġf ought
Ġf ired
Ġp ushing
om y
Ġl osing
Ġbe loved
im possible
st re
Ġre new
Ġwh ip
Ġhad n
Ġst uck
Ġme chan
ĠP russi
ĠS uddenly
Ġsh oot
ul ting
ul ations
Ġle is
ol gor
ort ion
Ġqu antity
ĠR osings
ĠJ ack
be ar
Ġen velo
Ġcomp lex
Ġarm ies
de ck
Ġho ly
Ġob tain
Ġcons isted
Ġcons olation
Ġfl our
Ġcl ub
ĠV II
ĠV ienna
Ãº kov
ev il
Ġact ive
Ġins isted
wor th
wor ks
Ġsur round
res ist
Ġobject s
Ġprev ented
Ġabs urd
ship s
ĠPet er
ative ly
Ġstay ing
Ġcalm ly
Ġaccom pany
Ġdream s
Ġconst antly
Ġdeg rees
ĠXV I
fortun es
Ġaston ished
Ãºsh ka
Ġattent ively
ĠXI V
Ġfavour ite
ĠBar clay
consid er
Ġuncom mon
Ġlangu age
Ġargum ent
Ġexer cise
Pro ject
ĠRep ublic
Ġfanc ied
olgor Ãºkov
C h
C on
D efarge
d or
f ull
f old
g ue
m ine
m aking
o om
p en
r ade
s man
t ri
v ill
Ġ 9
Ġt ones
Ġw ave
ou ching
on er
Ġh iding
Ġd well
Ġn iece
om ed
Ġg rin
Ġwas n
ur st
Ġsa iled
ĠâĢľ _
ĠP resently
ĠP emberley
Ġshe et
ĠS qu
Ġex ternal
Ġno b
ĠC lerval
op ened
os p
Ġqu it
ĠL iterary
ĠR ed
ĠR abbit
Ġpo ckets
ars ad
Ġrem orse
Ġbr isk
Ġnever theless
Ġown er
Ġarm ed
Ġper il
de v
Ġsc attered
so le
ject ed
ex cept
Ġcl im
Ġcl ut
ertain ly
Ġlight ning
ĠAn toine
by e
po or
Ġadv ancing
Ġmean while
Ġaw ake
Ġcur rent
ane ously
Ġrec ord
Ġdet ail
Ġorder ly
Ġext ended
Ġdep arted
ho pe
Ġobject ion
Ġwonder ing
Ġsoci al
Ġbu ilt
des p
Ġwa ved
Ġgri e
Ġmod est
Ġhunt ing
Ġprov ided
occ asion
hor se
Ġann ounced
Ġmiss ing
ford shire
Ġwhe el
ĠCom peyson
Ġpersu ade
Ġsuffer ings
Ġbor ne
Ġbod ies
Ġscream ed
Ġwand ered
Ġess ential
ĠEv rÃ©monde
continu ed
Ġsubst ance
Ġaccompl ished
clam ation
O r
S uch
b ell
d ered
e ye
g y
g ir
g ener
h our
k ch
s l
s ound
s per
s ix
u ge
Ġt ut
Ġs ink
re pe
Ġb ase
Ġb und
on et
Ġf ru
Ġf itted
Ġc oo
Ġd iver
as c
Ġhe ed
le ton
Ġp ier
Ġha bits
om te
Ġl oo
ot ing
im m
id ents
Ġg ates
st o
Ġe ternal
Ġas sent
ri e
ĠM ason
qu ick
ĠB aker
Ġsh y
Ġle e
Ġex ert
Ġal tered
Ġal ike
Ġal armed
li g
ak ened
ag ing
Ġqu itted
ĠF irst
Ã³ y
ĠG ab
Ġco ver
av o
row ing
Ġspe cies
Ġint ently
Ġmay be
Ġatt racted
Ġob tained
Ġfeel s
ex peri
ĠFrench men
Ġmar ve
ĠAn other
Ġcor n
Ġinter view
Ġste ep
Ġtra p
Ġinc red
Ġrel uct
cri bed
Ġrepe at
Ġfoot steps
Ġbrother s
Ġpain s
Ġsix ty
Ġcoll ected
Ġsens ation
Ġcamp fire
Ġprob able
Ġrecogn ize
ĠAust erlitz
Ġmark s
Ġprov ide
Ġheaven s
acqu aint
Ġlan tern
Ġciv ility
Ġpac ed
Ġawait ed
Ġjaw s
Ġharpoone ers
Ġestab lish
Ġestab lished
foll owed
Ġobe y
Ġcli ent
Ġsou ls
Ġdoct ors
diff icul
kch Ã©ev
L I
a is
b ows
c red
h undred
i pping
l arge
m osp
p ur
p ill
r ict
r oud
t ill
Ġ rom
Ġ vers
Ġs ang
ha ir
ed y
Ġb ought
is hes
Ġm ates
Ġf lesh
Ġin cluding
an n
Ġp oured
Ġp uzz
Ġn ation
Ġl ance
ut ions
Ġg ig
st ained
se veral
Ġe c
Ġre nder
ir med
ir ts
al one
Ġnot ion
Ġst y
Ġst ones
Ġsa iling
Ġsa ils
ĠT e
Ġse es
ĠM c
ĠM at
ĠH ippolyte
Ġshe l
Ġde fe
Ġr ows
Ġle ather
Ġle vel
Ġex cess
ol es
ĠW ould
art s
um erable
ĠD av
ĠD uke
Ġro ar
Ġro ck
ag re
Ġfe ather
Ġover come
ment ion
be aut
Ġbr an
for ward
wh ose
int ell
Ġbl ows
Ġint ense
Ġfl owers
con v
con st
Ġwhale man
Ġnew ly
Ġclo sing
su ccess
ĠX III
Ġste el
Ġ1 1
unt il
ĠThat cher
Ġfore ver
Ġcr imin
Ġsk ull
Ġdoub ts
ĠBe fore
gu ish
orm ouse
Ġfear ful
Ġbur ied
will ing
Ġrespect fully
Ġhundred s
comp lete
Ġregiment al
Ġenc ounter
Ġprodu ce
Ġcent er
Ġresult s
Ġreflect ions
Ġvan ity
Ġpen et
Ġendeav oured
Ġwond rous
ste in
Ġce ase
Ġhun ger
Ġpill ow
Ġris en
Ġur ged
wait ing
Ġmurm ured
stru ck
Ġshud der
circumst ances
Pet ersburg
Ġassemb led
Ġenthusi asm
ĠTra bb
Ġsummon ed
Ġportra it
ĠDuc hess
itud es
? ...âĢĿ
E S
h ot
h orses
i ated
k ers
m aid
p ast
r Ãºshka
s qu
t fordshire
w ant
z es
Â £
he lp
in fl
Ġs ne
en ry
Ġf rank
Ġh y
Ġd il
Ġd umb
Ġd rum
as hes
le e
Ġp red
Ġha unt
Ġn aked
Ġl in
Ġe t
Ġe rect
ay ed
al so
Ġis n
Ġis sued
Ġme nder
ĠM urat
Ġso lic
ĠP fuel
Ġbut ter
ĠS outh
Ġsh o
em s
Ġr out
ant ages
Ġdo ll
Ġex ception
us k
us ions
el k
Ġab hor
ĠC ar
ĠF ran
ĠF elix
ĠG ar
ĠG ive
ĠJ udge
me an
Ġlike wise
Ġdis h
Ġday light
Ġlong ed
Ġho arse
Ã© v
ub ber
uck ed
Ġlo aded
Ġend s
Ġsupp osing
,âĢĶ âĢľ
Ġche ck
gg y
har po
Ġdro ps
Ġdro pping
Ġtra ce
Ġinc ident
Ġcirc les
ĠTh us
Ġdead ly
Ġobser ving
Ġparticul ars
your self
Ġsqu ee
Ġsol itude
Ġenc oura
Ġconst it
Ġele v
bl ood
An other
An na
Ġspirit ual
Ġdism al
Ġfat ig
Ġenjoy ed
Ġmiss ed
Ġdeli vered
Ġbeat en
pass ed
cour t
Ġutter ly
satisf action
Ġfla g
Ġindic ated
Ġimpati ent
Ġrecoll ection
offic ers
Ġswift ly
Ġtranqu ill
Ġsus pected
Ġmill ions
Ġic on
Mad ame
Ġeduc ation
ĠHigh ness
Ġsour ce
ici ently
Ġsaf ety
Ġlone ly
A N
E stella
O U
P lease
b ers
c ut
f av
o ch
p hant
s we
s leep
t own
u ated
Ã ª
Ġ 7
Ġw ig
Ġo ath
Ġf ain
Ġf ile
Ġto ols
Ġd ined
Ġd ense
Ġd ashed
Ġhe els
Ġin cess
se v
ur ity
her kÃ³v
ĠT ake
ĠT oll
ĠT hy
ĠP e
ĠB er
ĠB el
ell ed
Ġv ice
Ġman age
um ps
ĠD ron
ĠD ormouse
ĠL ittle
ĠG ra
ĠG reat
ĠR o
ac ific
ick ing
Ġcomp ared
de ath
av rÃºshka
Ġpl ump
Ġpl enty
Ġres ist
Ġret ire
Ġcomm ence
ling ing
ting u
Ġlo ver
ev a
Ġstr ain
ĠAn y
Ġcor rid
Ġind ul
Ġfire s
Ġhope less
Ġinv isible
gr im
Ġrec all
Ġass urance
br ary
Ġexpect ation
cha racter
Ġreal ized
Ġaccount s
Ġmad am
Ġsy stem
cont r
Ġsens ations
ribut ed
Ġstart led
Ġdiv ided
thought s
Ġsend ing
Ġfurn ished
Ġrev ol
Ġassist ance
ĠChrist mas
Ġattent ive
Ġpersu aded
Ġpract ical
Ġmess enger
Ġrul es
Ġbenef actor
Ġswim ming
Ġvex ation
particul arly
Ġsadd le
Ġtrad emark
Ġperplex ity
Ġunivers al
Car thy
ĠCour t
Ġmajest ic
Ġbran ches
elk ilt
. ,
9 4
B ingley
E ng
O ur
f ront
h ill
h ouses
l est
r am
u gh
u pp
v est
w arks
Ã ¯
Ġ z
in ers
in ister
re nder
er ity
Ġm ach
Ġf ence
Ġf oe
Ġf aster
Ġc itizen
Ġh om
Ġd aily
Ġhe ap
Ġin comprehensible
le ave
Ġl est
Ġl ord
im mediately
Ġre n
Ġre ver
ir on
ur b
Ġan tic
ĠS A
Ġde af
to v
ul ted
Ġr ude
Ġle viathan
ĠC l
Ġun w
ĠL ouis
Ġpro long
ne ar
Ġsm iles
ud ed
ĠO ther
Ġbr ide
Ġpe ep
Ġpart ly
int s
Ġcha in
ord ers
Ġexp ed
Ġsc ound
Ġhar ness
Ġra gged
Ġop inions
Ġtr ade
Ġtr amp
Ġacc ur
Ġacc used
ĠV ery
Ġapp lied
Ġte ach
ens ion
Ġside ways
Ġwind s
Ġcap acity
Ġsec re
Ġsw ung
Ġrest ing
Ġrest ored
mper ors
Ġ1 0
rem ained
rem ember
oun cing
Ġass ume
ĠOn ce
Ġperson ally
under stood
ye ar
Ġjo b
agg age
Ġpur cha
Ġpain fully
Ġdisp osed
Ġest ates
So on
Ġve h
Th us
Ġsense less
happ ened
Ġhast e
St ill
Ġglass es
see ing
Ġpay ing
Ġmount ain
mend ous
Ġconce aled
feel ings
Ġcoun cil
Ġdelic acy
bel ieve
Ġassist ant
Ġpac es
Ġrequ ire
Ġta vern
ĠJust ine
Ġvent ured
Ġfrequ ent
Ġfee ble
Ġcarp enter
offic er
Ġga ily
Ġcolumn s
Ġfier ce
Ġamaz ement
ĠDan iel
Ġfortun ate
yr other
ĠBog uchÃ¡rovo
sac rif
Ġantic ip
G eneral
M onseigneur
R O
W ould
_ .âĢĿ
a x
c er
c ence
f ell
g a
g utenberg
h ole
i ably
m at
m id
m ate
o a
p ir
p rincess
r ained
s ight
t imes
Ġ Â£
Ġa x
Ġa ide
in ations
re em
Ġb ay
Ġb la
Ġm ixed
Ġf ow
Ġf el
or ation
at hed
at ors
Ġn a
om on
ut ing
al Ãº
al ian
Ġan gel
Ġse izing
ĠM ill
ĠH im
all es
pe l
ĠS pan
to e
Ġup right
lf are
est rade
Ġv alley
ound ing
ĠW hether
ĠD olgorÃºkov
Ġj ew
ie ved
au d
ĠR uc
Ġpre m
Ġdown stairs
ne igh
Ġrem ote
Ġbo ot
sh ch
sh ine
Ġmust ache
Ġcomp osed
Ġour s
Ġper formed
de f
ord ing
Ġfl ames
Ġra re
Ġwant ing
icul ous
Ġdra g
Ġocc asions
Ġaff ect
ial ity
Ġgu ilt
Ġ1 7
act ory
Ġcur tain
Ġcare s
Ġtra ck
Ġins ignific
Ġinc hes
Ġreason able
lock ed
Ġpur se
Ġmil k
Ġkiss ing
Ġvar iety
Ġpri est
Ġcoll ar
ang led
Ġplan ks
Ġmem ber
Ġobli g
exp ressed
pr ot
Ġval uable
Ġexam ine
Ġviol ently
Ġenjoy ment
Ġlim bs
Ġpit ch
Ġacquaint ances
Ġpac ing
ĠNor th
del ight
Ġintrodu ced
clo se
Ġbecom es
ĠPol ish
command er
Ġelder ly
Qu ite
Ġslee ve
ĠAmeric an
Ġcompar ison
Ġseam en
uz m
oubted ly
ĠBour gh
C ertainly
E D
L ady
S ir
W as
W hale
W emmick
b ound
b attle
b acc
e ach
g ust
h ip
i ber
l uck
m il
s itting
t ies
Ġt id
Ġa we
Ġw oe
re ceived
Ġo wing
ou ched
Ġb ust
it self
Ġf er
Ġh ook
Ġh ull
or ing
le g
Ġha re
om ach
Ġth read
Ġst ates
ri bly
Ġan guish
ess alles
Ġme at
ĠA gain
am m
ĠH enry
ra ction
ĠS ol
ĠS aw
hen omen
Ġr att
Ġv engeance
Ġno vel
ĠD er
Ġun ited
Ġam used
ĠL a
ne xt
be gin
Ġch ose
Ġbr ows
for mer
Ġpart ing
sha r
Ġcomp le
Ġcomp ly
not iced
te xt
Ġhapp ily
ub ble
Ġtr ous
com fort
ex am
ex pect
con ce
ĠV engeance
Ġsub tle
Ġsw ept
po ssib
lic ity
Ġwar ning
Ġinter f
pl an
reg ular
Ġmon arch
Ġexpect ations
Ġnor th
cri ption
Ġri bb
du ced
Ġshort ly
uff led
Ġsur ve
Ġdri ft
Ġbur den
Ġdef ect
Ġjoy fully
Ġsubject s
Ġoccup ation
Ġattack ed
Ġgener ous
spe aking
Ġsal t
present ed
Ġtrave ll
Ġmars hal
adv antage
Ġattent ions
Ġdisapp ointment
Ġincl ination
Ġstro ke
Ġimpati ence
Ġtemp or
Ġprincip al
child ren
Ġpra ise
Ġbattal ion
Ġnarr ative
Ġnum erous
acquaint ance
mosp here
Ġec st
ĠGar gery
Ã¯ ve
A lex
C opyright
D arcy
F irst
G ive
H ad
H urrah
I N
[ _
b reat
d ain
d oubt
e ep
l our
l ict
n ut
p ain
r ison
u it
u gg
v ent
w ish
y n
Ġa ch
Ġs inking
re c
er ate
it ors
Ġm ult
Ġm ental
Ġto bacc
Ġn umbers
Ġl ake
Ġbe er
Ġbe ings
ut ter
id s
st ud
se par
Ġre leased
Ġsa ber
ct ure
ter oom
Ġse ize
ĠS ay
ĠB arsad
em ember
Ġv est
us al
Ġkn oll
li ked
ag ers
op ed
Ġfa cing
Ġqu alities
Ġgo d
Ġgo ver
ĠE h
ĠE mp
Ġtw it
Ġdis agreeable
Ġdis grace
Ġrem ove
Ġold er
for th
Ġpe op
Ġhead quarters
omet hing
Ġrep utation
Ġper ceive
Ġstill ness
Ġimp ulse
Ġdes ir
Ġcomm ission
Ġfl ung
Ġcl oth
ĠV ict
Ġdoor way
Ġcap s
Ġheart ily
ĠTh ou
pro f
Ġdisc lo
Ġsign al
do ing
Ġpur sue
Ġpret ended
will iam
Ġenem ies
Ġben evol
Ġchair s
ask et
Ġart icles
every one
Ġprop ri
acc om
Ġball room
Ġglo ves
Ġ18 94
Ġsoft ened
chan ged
ĠLady ship
Ġann ounce
Ġviol ence
Ġsolemn ly
itz william
Ġlab or
ache lor
Ġvent ure
Ġpassion ate
Ġrepresent ed
Ġlar gest
Ġmusk ets
ĠZ herkÃ³v
Ġinev itable
Ġtriump hant
Ġpolit eness
Ġcorp se
stra ight
Ġfavor ite
ĠIly ÃŃn
hist or
ĠArch ive
Ġlou der
Ġintellect ual
Ġhither to
Ġarrest ed
Ġinstrum ent
Ġming led
Ġaut umn
Ġgig antic
ĠMc Carthy
Ġcorrid or
Ġna Ã¯ve
: --
F ish
L e
M an
M amma
] ]
b ra
c ham
c rowd
f act
g iven
h usband
i arly
l en
n ib
o ber
p le
p urp
p iece
s imp
w atch
Ã ¶
Ġa ven
Ġs erene
ed nes
Ġb owing
es p
Ġhe ll
Ġp os
Ġp ave
Ġp owder
Ġha y
Ġn on
ic ule
Ġg e
Ġu g
Ġsa ll
Ġsa cred
Ġan t
ct ober
ill ing
ĠH a
ĠP acific
ĠS everal
Ġde mon
Ġcon ject
Ġr ushing
Ġex hib
ust ri
us se
our se
li ving
ap able
ĠC o
Ġun reason
Ġj et
Ġpre fer
ac on
Ġdis order
Ġshould n
Ġbo ast
sh ort
for ce
de ar
de ad
Ġsc ared
Ġret orted
Ġfl ow
ĠYou ng
cl othes
amp ed
Ġsupp ly
Ġconf ined
Ġrest less
Ġrest rain
lic able
Ġchild ish
Ġchild hood
Ġter m
Ġcertain ty
Ġsmall er
Ġexpress ing
reg iment
Ġrec ent
Ġless ons
br idge
ĠFor ster
Ġrel ate
pro per
uten ant
Ġadm ired
vo c
Ġdep ths
Ġsleep y
ĠAll en
Ġprom pt
Ġland ing
Ġflo ating
Ġrespect able
run ning
Do ctor
Ġcoll ection
Ġsens es
chan ce
Ġanx iously
Ġhast ened
Ġpray ed
Ġwarm th
olunt ary
Ġinquir ingly
add ed
Ġbelong ing
Ġann oy
Ġmass es
Ġdim ly
Ġfun ny
Ġtrave lling
Ġwhisper ing
tal king
Ġendeav our
Ġlod ge
Ġincl ined
Ġearnest ly
Ġtroub les
Ġignor ance
hard ly
Ġpolit ical
Ġtranqu il
Ġsus pended
ept ember
din ner
Ġargum ents
Ġexchan ged
return ed
Ġprepar ation
Ġmour n
Ġrelie ved
Ġdrown ed
Ġinevit ability
ĠAra kchÃ©ev
Ġske leton
reco gn
vill age
Ġsty le
ĠRuc astle
ednes day
B olkÃ³nski
B esides
c iv
f ashion
g un
g az
m ark
n s
p osed
r ise
t om
t ro
t led
w ounded
Ġ ze
he ar
Ġs an
it ate
Ġh ounds
or al
Ġd ate
Ġd ried
Ġhe lm
Ġin cluded
Ġp ip
Ġha ted
Ġn ap
ut tering
id able
ic ious
Ġg ru
Ġe p
Ġy onder
Ġy awn
Ġas hes
Ġas ser
ur ous
Ġst omach
Ġat tain
ri ve
ĠT ar
ĠT urn
ĠM il
ke ep
am med
ĠP apa
pe culiar
th ou
ĠB oth
Ġde ceived
ul ating
un yÃ¡
ist en
Ġwhen ce
la c
Ġun seen
Ġar ise
ress es
ie u
ĠL ife
other wise
ĠE mperors
ĠR e
iss ed
sh out
Ġcomp osure
Ġpl ate
Ġsc orn
Ġcons ult
cl oth
Ġinst ances
Ġdra go
Ġsw inging
Ġfoll ows
Ġfind s
Ġadv ised
Ġste pping
Ġalong side
Ġdec is
Ġless on
Ġcare er
Ġmis fortunes
How ever
Ġobser v
agg oo
Ġvill ages
Ġeas ier
eng ers
hand kerchief
Ġbur nt
kn ife
Ġtre mendous
ĠWith out
Ġanim ation
Ġenc ourage
Ġfast ened
Ġwa x
Ġhill s
Ġscen es
count ess
ĠXV III
turn ing
Ġdim in
Ġtrans ferred
think ing
Ġbless ing
Ġsli p
consid ered
Ġpet ition
Ġfaith ful
Ġinn umerable
Ġpati ence
Ġhide ous
Ġcarp et
ams a
Ġvic omte
._ ]]
Ġmot ive
cond ition
Ġdeb ts
Ġbas ed
Ġintent ions
Ġslee ves
Ġemer ged
olid ay
ĠHar per
Ġshru gged
Ġearli er
Ġthorough ly
Ġrubb ing
Benn et
Ġflu kes
intell ig
ĠSol omon
Ġtobacc o
unyÃ¡ sha
A bout
S E
S herlock
V asÃŃli
W ait
c ision
e ight
f right
k iff
l ady
l ifted
m ere
m Ã³lo
o k
p at
s it
s un
s ign
v Ã¡r
w y
w hales
Ã ł
Ġa while
in ous
in ction
Ġw retch
Ġb rew
it ect
on str
Ġf og
Ġf olk
Ġc ig
Ġc ared
Ġto il
ll able
as y
as es
Ġp up
Ġn amed
Ġl ux
Ġbe hold
ot ions
id er
ly Ã¡n
Ġwas ted
Ġre ign
al t
ur ches
Ġst ories
Ġan ch
ĠM any
Ġsu spect
Ġde ce
Ġk ings
em y
ers ed
ol st
el ed
li est
Ġwe eping
Ġwe lfare
Ġthere by
um es
ĠC am
ĠC ape
ort ing
la ugh
Ġtheir s
ĠF reem
Ġgo ss
ĠR oy
Ġpre y
Ġpro dig
Ġco inc
Ġdis like
Ġdis satisfied
be came
ove mber
ren ched
Ġback s
Ġexp ense
Ġgl ow
Ġgl ances
Ġcont ents
ĠK ir
Ġpass ages
Ġmost ly
Ġfl ame
get ting
Ġend ured
co ld
su per
Ġmo ist
Ġsil k
Ġconf irmed
Ġsub s
Ġchan ges
Ġref und
Ġsmall est
Ġcommand s
Ġ1 2
ian a
Ġinv ar
gr ad
reg ard
Ġhelp less
ĠHer tfordshire
Ġdec ide
Ġdec ision
pre p
Ġri gging
Ġbattle field
wor n
wor thy
Ġexpl aining
Ġdisp ositions
Ġinqu ire
Ġcreat ed
Ġmad ness
Ġsix teen
ĠWh ich
Ġoccasion al
Ġreply ing
Ġdress es
inter rupt
Ġsol id
With out
tr Ã¡d
exp ress
Ġrid iculous
Ġsharp ly
Ġdeser t
Ġexam ining
ĠAlex Ã©evich
Ġmed ic
conf idence
Ġdeli ver
Ġapart ment
ruct ed
Ġpun ch
Ġrev iew
Ġstir red
Ġstrugg led
conc ern
Ġsignific ant
gentle men
Ġid le
Ġcustom ary
Ġbod ily
Ġdistingu ish
Ġmurd ered
Ġwand ering
Ġbul k
Ġsway ing
Ġreser ved
Ġhospit al
IL OR
Ġprecise ly
Ġpropos al
Ġconcent rated
Ġsche me
sch ool
sto pped
infl u
Ġtranquill ity
ĠSA ILOR
Ġsecre cy
ĠSaw yer
ĠVict or
kiff ins
mÃ³lo v
trÃ¡d noe
; âĢĿ
A L
E h
G er
H all
O ld
a us
b ar
b one
c aptain
d ress
e ur
e lect
f ixed
h l
m al
m oney
m outh
m oved
n et
o ard
p rin
r s
r im
t ured
w onder
Ã ½
in cl
Ġs en
Ġs ons
re qu
re ally
ha ling
er ies
er ted
Ġb on
Ġb ind
Ġb aggage
Ġc ult
Ġto oth
Ġto ler
Ġd re
le et
Ġl ap
Ġl ane
Ġbe wild
Ġg oose
ir gin
Ġan teroom
Ġme ad
Ġme al
ĠA g
ĠH are
pe ak
il iar
Ġshe ep
th ur
Ġcon qu
em Ã«
ĠW ind
Ġli brary
ĠD aggoo
itt ered
ort al
Ġar oused
ĠF in
ĠL icense
me aning
ÃŃ ts
Ġbr ick
Ġgr ou
Ġrep ose
Ġbl ubber
Ġexp lo
Ġgl imp
Ġpr ice
Ã© y
Ġhar der
Ġfl ower
Ġget s
Ġser ving
Ãº tin
Ġhouse keeper
Ġconf irm
Ġsub sequ
Ġsw ore
po cket
Ġche cked
ult aneously
Ġbro od
gr own
Ġinf er
ĠWe yrother
Ġtra vel
Ġreason ing
Ġsuff iciently
Ġdisc har
ĠU pon
Ġcrowd s
Ġcold ly
ey ed
ob ject
off ice
comp ass
Ġsy mpt
Ġdread ed
Ġquar rel
Ġpeace ful
Ġmem ories
ext ra
Ġadjut ants
olunt e
Ġhunt ed
Ġinquir ing
Ġeager ness
Ġgallop ing
Ġfun eral
Ġcre ation
Ġneg ro
** *
wr iting
Ġdisapp ointed
understand ing
EN T
ĠTur k
Ġmoon light
Ġmess age
Ġthreat ened
Ġstation ed
Ġluck y
Ġder ived
Ġperform ance
answ er
Ġpop ular
Ġfever ish
Ġav ail
Ġadvent ure
Ġindepend ent
ĠSc ot
Ġceremon y
Ġcondem ned
Ġborz ois
Ġbarb ar
ÃŃl na
ĠGen eva
Ġphr ase
Ġbund le
Ġassent ed
Ġrom antic
Ġcrimin al
Ġpeop les
emÃ« n
Ġglimp se
Ãºtin o
B ER
D e
M ore
P l
U pon
a ult
b right
b ott
d em
d read
l ve
l ass
m ur
p ent
r ich
w ling
y s
Ġa fore
in sh
Ġw aving
re al
re te
ha w
it le
it ations
Ġm ale
Ġd at
as per
ar top
le ts
Ġp ool
Ġha iled
Ġn er
Ġbe ars
ut able
se ct
ro lled
ĠT w
ter rible
and y
am eless
ĠH old
ĠH urst
ĠP re
ĠP ray
ĠS erene
ĠB l
ĠB lack
Ġsh roud
Ġr ot
est ab
us ually
ol er
ĠW ar
Ġkn eel
Ġman e
li ps
um ption
ĠD utch
ĠD essalles
Ġqu ality
ĠL avrÃºshka
Ġhand le
ĠR y
Ġpre serve
Ġpro sper
Ġpo nder
be come
ber ry
end s
Ġch urches
ĠO ctober
ĠO trÃ¡dnoe
ĠIt alian
Ġthought ful
Ġgr ain
sha d
Ġper f
te enth
ĠK uzm
Ġpass ions
Ġpass enger
Ġatt achment
iv al
Ġtr ot
Ġcl ay
Ġapp lication
Ġnew sp
Ġend less
Ġreg iments
Ġreg ularly
Ġsec ured
Ġchan ging
Ġpresent s
Ġgu ine
Ġstran gers
Ġact ual
ken ess
gr and
Ġsince rely
Ġbest owed
Ġinc apable
pro v
du ed
long er
Ġfoot men
pend ing
Ġfur y
Ġland ed
Ġmer c
Ġmer it
Ġdef end
Ġjoy ous
Ġground s
Ġbright ly
Ġve lve
Ġprop ortion
Ġconsider ations
ton ed
Ġsatisf y
Ġhat red
Ġhistor ic
Ġpray ers
pla ces
Ġfair ly
Ġlower ing
Ġexam ination
ĠXV II
Ġtender ly
Ġbell s
ĠXI X
Ġincreas ing
ĠAustri a
Ġrub bed
Ġdecla re
Ġperp et
Ġsla ve
Ġarrange ments
Ġaud ible
Ġwhist ling
Ġess ence
Ġvex ed
Ġsway ed
ĠAm ong
Ġwaist coat
det erm
bro ken
break fast
Ġbree ze
Ġsev enty
surpr ise
ĠPhil ips
Ġcontrad ict
conn ected
Ġeleg ant
Ġprovis ions
Ġapprehens ion
Ġleis ure
ĠSqu are
pill ar
Ġvers es
sacrif ice
Ġtrous ers
Ġgover ness
Ġpave ment
Ġug ly
lyÃ¡n in
E CT
H avisham
L ong
S hall
W ickham
_ ,âĢĿ
b ad
f ro
f ew
p rince
s ens
t ree
u onaparte
v ar
w on
w anted
Ġ "
Ġt ables
he m
Ġw ot
Ġw ars
Ġw oke
Ġb ol
it ively
Ġc ough
Ġc oward
Ġd az
le ast
le berry
Ġp all
Ġp ig
Ġp anting
Ġp henomen
Ġha ul
Ġl amps
im Ã³
ic ted
ver ted
ay a
Ġwith drew
Ġwh iteness
Ġfor bid
ĠT r
ĠM inister
ĠA ye
Ġshe ll
ĠS ar
ĠB en
Ġsh oe
em ents
Ġex per
Ġex isted
Ġv i
Ġv ap
ĠW est
um ult
The ir
Ġag es
la id
Ġro sy
Ġj er
Ġj est
Ġam ount
ab led
ĠJ une
here nt
Ġover board
ru bet
ne ed
Ġdis dain
ber y
ove l
Ġbl iss
Ġexp osed
Ġsc r
Ġsc ore
Ġatt ending
Ġhapp ier
Ġcons ist
ub s
He ading
Ġfl owed
com ed
Ġcl um
Ġcl ergy
Ġtell s
Ġapp ointment
cl usion
Ġpleas ing
co ach
sp read
sp oke
Ġappe al
Ġwind ing
kh in
Ġchan ces
Ġbus hes
Ġsle nder
Ġgu ide
Ġadv ise
Ġkind s
Ġ1 3
Ġinv al
enn y
pro bably
ater pillar
Ġsun shine
Ġdev ils
Ġdep rived
ĠU nder
Ġcal Ã¨
Ġsecond s
Ġrespect ed
comp an
Ġdread fully
Ġcra cked
Ġmention ing
Ġshar k
Ġsecret s
Ġanim als
Ġhop ing
Ġrecogn ised
set tled
after wards
ĠEnglish man
Ġdescri ption
Ġrid den
just ice
Ġprov in
dra wing
Ġmed ium
Ġprot ected
Ġavo ided
rep lied
ĠGerman s
ele br
Ġver d
Ġcat ching
Ġconduct ed
Ġadmir able
Ġconsequ ently
Ġimpro ved
Ġnodd ing
Ġmagn anim
Ġattend ance
Ġbold ly
Ġuneas iness
Ġyield ed
Ġcontin ual
suff icient
Ġbul warks
din o
evol ution
ĠIly Ã¡
Ġfem ale
Ġech o
Ġech oes
ĠSte elkilt
Ġlear ning
Ġmanif est
Ġhamm ock
Ġintim acy
Ġmilit ia
Ġpreced ing
Ġplun ged
Ġinvest ig
ĠPrussi a
Ġfru it
Ġmach ine
Ġprolong ed
imÃ³ khin
rubet sk
A lpÃ¡tych
B al
C E
G et
O nce
S uddenly
b un
b urn
f if
g ent
i ard
m ad
n est
n el
p un
t ry
t Ãº
w s
w in
Ġt umb
he av
Ġa ft
Ġs lack
re ase
re str
it ness
Ġm ission
Ġc elebr
es cend
ar ming
Ġin conven
Ġl oves
ĠI l
âĢĿ ;
Ġbe ard
ut tered
Ġg room
ver ty
et ition
al es
ri pp
ĠM ak
ill ot
ĠS kiffins
ĠB et
Ġde velo
Ġup set
nt ed
Ġle ak
Ġor gan
Ġex tingu
ol ent
ind er
Ġkn ot
ĠC hapter
la ir
Ġun ite
Ġro ared
ĠF ive
ĠF itzwilliam
Ġfe ature
ĠE n
Ġad vert
Ġpo ison
Ġdis s
Ġdis gust
ars ki
Ġbl owing
Ġper cept
Ġho isted
Ġspe c
Ġres c
iz ation
Ġhar sh
ĠSt and
Ġmar ble
Ġreg ion
Ġmo b
Ġappe aring
cei pt
oot s
Ġind uce
Ġel bows
Ġaw akened
Ġfore castle
Ġhum ili
Ġrec ently
pre s
Ġcare less
ĠTh rough
Ġir resist
Ġdisc ern
Ġelse where
Ġsur v
nat urally
ec ond
hand ed
Ġpain ted
Ġeng age
aff ection
Ġform ing
Ġrespect s
Ġart ific
Ġgall ery
Ġve il
cher s
rink led
Ġleg al
Ġfright ful
Ġpar lour
Ġesc ort
pla ced
Ġele ment
Ġrecogn izing
Ġforget ting
Ġpa using
Ġwarm ly
Ġdifficult ies
Ġdeser ved
min utes
rif ied
Ġcre pt
Ġgrand eur
Ġunif orms
Ġdepend s
Ġgrave ly
soci ety
Ġauthor ities
inc reas
Ġpack ed
Ġpract ice
Ġappre ci
Ġconfess ed
Ġsuspic ious
Ġshri e
Ġresp ond
Ġdistribut ed
Ġintrodu ce
Ġfisher men
Ġinj ured
Ġaud ience
Ġdrun ken
Ġwhist le
Ġic ons
Ġstat ement
interest ed
uls ive
answ ered
ĠIvÃ¡n ovich
Ġwag ons
Ġwrink led
Ġwrink les
Ġprocess ion
Ġstoo ped
Ġphilosop hy
Ġweap on
Ġascend ed
Ġrad iant
eren ces
Ġpron ounced
move ment
ĠGreen land
Ġadop ted
Ġgrav ity
Ġloc ated
Ġtip toe
Ġestablish ment
ĠDav out
beaut iful
Ġhaunt ed
vÃ¡r dino
insh ÃŃn
tÃº rov
A G
A y
E n
H Ã©lÃ¨ne
J ECT
K ar
S top
b od
b les
b orn
c ity
d ge
d iv
f are
g lo
l ost
m ount
m lin
s men
s oul
t z
t ons
v iol
Ġt u
Ġt ent
Ġt read
Ġt act
ed all
Ġb isc
Ġm ail
Ġf ri
Ġf aded
Ġp ul
ut tle
Ġg ard
Ġg ale
st ers
st ate
st retched
se em
Ġe gg
Ġe tern
Ġwas te
Ġth umb
Ġre se
Ġre tained
ay ing
et ing
al f
ur ious
ur bed
Ġat mosphere
ch urch
Ġher d
Ġsa ving
ĠA bout
Ġso b
ĠP lease
ĠP RO
ra p
ĠS av
ĠS amsa
ĠS emÃ«n
ĠB ill
Ġde ceive
pp ers
Ġcon ceive
ard ly
us ive
ol en
ol ate
ĠW ednesday
ind eed
ĠN ext
Ġab rupt
ĠC at
ĠC ould
ĠC ity
Ġag ed
la ce
Ġun necessary
op inion
Ġany way
Ã¡ rov
Ġfe ast
Ġnow here
od ge
ĠL estrade
ĠG UT
Ġtw ink
Ġdis gu
Ġsha red
Ġsha ken
ars hal
ĠO ut
Ġgr ant
Ġseem ing
Ġthr ong
Ġcha pter
Ġcha mbers
so ever
Ġspe ll
Ġcount ing
Ġfl ood
Ġmar ching
Ġapp ly
Ġwat ery
ens ity
ĠRostÃ³v a
Ġsupp ressed
Ġsupp orted
Ġcle aring
vers ed
Ġsw am
ason ry
Ġref uge
ial s
Ġter rors
Ġadv antages
Ġexpress ive
act ly
aut hor
az Ã¡n
rem em
Ġdec or
og en
Ġdet achment
Ġins ult
Ġinc ome
ump ed
Ġes aul
Ġopp ressed
Ġeye ing
Ġreal ize
Ġconv oy
Ġdoubt less
Ġpret end
Ġpol ic
Ã¨ re
Ġprop ose
Ġtre acher
Ġmouth s
Ġlif eless
Ġequ ip
gl ad
Ġbar rier
Ġeffect s
Ġharpo ons
ĠAust en
An y
Ġast ern
dist ance
car ried
car riage
Ġden y
ĠGeor g
Ġdepend ed
Ġpriv ile
Ġunf old
Ġpal ace
Ġdust y
Ġdi vers
wr itten
EN BER
Ġhero es
Ġkey s
mar ried
Ġrejo ined
rud ence
cor ner
Ġdistribut ing
rÃ© mlin
Ġdistur b
Ġguess ed
Ġble w
Ġtransp ort
Ġtrif le
Ġpolite ly
ĠPl at
Ġprepar ations
Ġconve yed
dest ro
ĠeBook s
Ġswall owed
Ġsnat ched
Ġmeas ured
Ġcongrat ulate
pret ty
Ġrelig ion
Ġcrit ical
Ġpuzz led
shar p
Ġcomple ted
civ il
Ġpip es
Ġgoss ip
elect ronic
hl ans
edall ah
ĠPRO JECT
ĠGUT ENBER
ĠGUTENBER G
E ven
H a
I V
b able
b by
b ird
c re
d am
f ine
i ot
i ac
l ings
l ime
m ain
m ov
o z
w all
Ġt ar
Ġw aking
Ġs outh
ha ble
Ġb ars
Ġb uck
Ġb ald
Ġm oves
Ġc attle
Ġd uel
Ġhe ars
Ġp uck
ot ograph
Ġth ither
Ġre tain
Ġst ool
Ġst agg
ĠT er
Ġse ll
ĠM ag
ĠM ouse
ke eping
Ġso bbing
ĠP aul
ĠP oor
pe ace
ĠS eptember
ight s
ĠB ed
Ġsh ows
Ġcon tained
Ġcon taining
Ġr attle
out s
Ġal tern
!âĢĿ âĢĶ
ĠN ovember
Ġab und
ĠC lar
ĠC aterpillar
Ġj e
ount ered
ack ed
Ġpre caut
ĠJ ones
Ġsm oot
ud ding
Ġbeg ins
Ġrep ent
Ġbl own
Ġgl ided
Ġwhere ver
ĠK n
Ġint ri
Ġfl ash
Ġfl attered
Ġra ft
att ent
Ġthrough out
ĠV ÃŃlna
Ġmar ched
Ġcall s
cl oud
Ġwr ist
oy age
sp ring
su ing
kh tÃºrov
Ġsub mit
Ġstr ing
Ġgu est
ken stein
Ġopen ly
Ġfore finger
Ġsince re
Ġinde f
Ġspeak er
Ġcr imes
idd ing
Ġins ens
pro p
Ġhur rying
Ġext rem
bo ats
Ġdev otion
Ġill um
Ġserv ices
pend icul
Ġjo ining
Ġappro val
Ġdri ver
cul iarly
Ġmist ress
Ġest eem
eas y
Ġang le
Ġreco ver
Ġtor ture
Ġearth ly
Ġproper ly
Ġwild ly
pleas ed
arer s
ĠCh urch
Ġrapid ity
Ġmut tering
Ġenc ountered
ĠAr thur
Ġjud ged
Ġconn ections
Ġeight een
Ġdeterm ine
ouri er
Ġpor ter
ĠPÃ¡v lo
dist ingu
conf ident
Ġburst ing
Ġeat en
Ġsolemn ity
Ġwis dom
Ġmaid s
Ġfamil ies
rid ay
Ġpun ish
ues day
Ġstir ring
friend s
Ġcommunic ated
Ġdisapp ro
Ġspect acle
Ġban ks
resh old
Ġhun ters
Ġarrange ment
Ġwel comed
Ġhes itating
tow ard
Ġfo am
Ġdeb t
Ġunconscious ly
Mad emoiselle
Ġbull ets
dark ness
Ġcaut ion
Ġsoot hing
Ġinfinite ly
Ġenv y
Ġterrif ic
list ened
Ġdeliber ately
Re ally
Ġbetray ed
Ġcontro l
Ġelo qu
Ġacknowled ged
Ġclas ped
Ġscound rel
alÃº ga
Ġinsignific ant
ĠTar Ãºtino
Ġdre ary
Ġgrou ps
ĠcalÃ¨ che
illot ine
Ġstagg ered
B erg
H old
L ike
S p
c art
d ream
i ate
k ins
l ines
p ull
r ising
s a
s n
s ir
s ford
t one
t rying
v it
v ast
w itch
x im
Ġt ur
in ent
Ġs na
Ġs illy
Ġo ar
Ġo we
ha ls
Ġb arn
Ġb uff
Ġm um
Ġm ap
Ġm ix
Ġf ol
Ġf oul
Ġf asc
Ġc ouch
Ġhe aving
Ġp ie
Ġp hant
Ġl imp
ow ards
Ġg hast
âĢĻ ,
ce mber
Ġre ass
Ġre conc
ad et
Ġst or
Ġst ove
ri v
ĠT ime
and s
Ġse x
Ġme nd
ĠA f
ĠA nt
all ow
ĠP r
ra ised
il ingly
the w
ĠB uonaparte
Ġsh ops
Ġr ud
ers on
ant ime
out hern
Ġle af
Ġkn itted
our selves
Ġli keness
ist ered
ĠN at
ĠN ik
ĠC he
ĠC le
ĠC ross
Ġun willing
ĠF edallah
ie v
Ġsp ort
Ã³ rov
ĠG over
Ġtw isted
Ġpo le
Ġco vering
ac ross
Ġbr anch
ĠIt s
int ention
int ended
Ġback ward
Ġper ish
Ġper ished
Ġcont act
Ġimp ressed
ĠK rÃ©mlin
ĠK alÃºga
Ġres our
ĠShe vÃ¡rdino
Ġfl owing
Ġra gs
Ġke el
Ġyoung est
ex ec
con sequ
Ġmoment ary
Ġmar iners
Ġdist racted
What ever
ev ents
ĠAn gel
ract ers
ĠThere fore
any one
Ġread iness
Ġexpress ions
fe ar
Ġcur ly
Ġcur se
gr ate
Ġdro oping
Ġwait er
Ġkeep s
Ġtra ces
Ġsent iment
ĠDo es
ĠDo khtÃºrov
cri be
Ġcond escend
Ġfall s
bur st
dis c
ug ged
kn owing
Ġrepeated ly
Ġrespect ful
ob served
Ġsum m
Ġacqu ired
comp any
Ġdifferent ly
Ġregard ing
Ġbreat he
fect ly
Ġcharacter istic
Ã¡v ra
ribut e
St arbuck
bl ue
Ġdesire s
count enance
af raid
Ġlim ited
Ġthy self
Ġhealth y
Ġsim ultaneously
Ġpun ishment
Ġattempt ed
Ġvirt ues
Ġsuper st
ĠInd eed
sec ond
Ġband aged
rud ent
ĠSh inshÃŃn
Ġcruel ty
Ġvic inity
Ġarran ging
Ġbatt les
Ġfier y
Ġhes itated
serv ice
continu ally
Ġstret ch
Ġ180 5
isp ens
ĠAmeric a
sil ent
Ġconve y
Ã¡s im
Ġrelie ve
Ġbattal ions
Ġlou ng
ĠBo ar
bu ild
bes ide
Ġpil grim
Ġresemb lance
Ġtend ency
Ġlear nt
Ġple aded
Ġvol ume
Ġaddition al
Ġcalcul ated
Ġsear ching
ĠSe a
Ġjealous y
fig ure
Ġty pe
Ġdel ir
Ġenvelo pe
Ġdwell ing
gir l
Ġcampfire s
harpo one
cham ber
ĠSar ah
Bal ashÃ«v
B oth
E mp
P oor
S ince
b led
c a
d og
d Ã¡n
g ings
i em
j ut
j ack
m ic
m el
p aper
s light
s oft
v ict
Ġ -
he aring
he tic
Ġthe at
Ġs ly
re r
er get
ou ter
Ġb lend
Ġb achelor
Ġm ould
en emy
on ing
Ġf il
Ġto es
Ġto lerable
Ġd aring
ar ound
Ġin it
Ġin her
an ge
Ġp ark
Ġp row
Ġp ush
Ġha il
Ġbe ach
ic ip
Ġwas h
Ġwas hing
ve lled
Ġre duced
ro pe
Ġst ubb
ri el
Ġse lected
ĠM um
ĠH or
th rown
Ġde emed
Ġup ward
Ġup wards
Ġv ous
Ġv ile
Ġv ener
ĠW il
ĠW hales
Ġal t
Ġout ward
um ent
han ging
Ġun ion
Ġun just
Ġun account
Ġar gu
ag on
ag an
ag ged
Ġj olly
ig ning
ĠL ake
ĠL odge
ĠG r
ĠR ad
Ġpre text
Ġoff ering
Ġcan v
Ġcan nib
Ġover fl
Ġover whe
ac es
ac cept
Ġen erget
ars on
ĠO R
Ġunder taking
int end
we ak
we ather
Ġback wards
Ġbl ushing
Ġper mitted
Ġcha ise
Ġgl im
Ġcont ented
Ġcount ed
-- âĢľ
Ġpla cing
He aven
Ġra rely
Ġcl ung
Ġap olog
ĠIn n
Ġdist ressed
Ġwr it
Ġcar ved
Ġlight ing
Ġconf lict
Ġsub dued
Ġhor rid
arn ed
Ġstr ained
by shire
Ġem ig
po ise
Ġref usal
Ġrest ore
lic ted
Ġfoll y
Ġche ese
Ġinter pre
Ġworld ly
Ġhum p
Ġhum ble
Ġmon str
Ġhold er
Ġbest ow
Ġquestion ed
Ġsent iments
ĠU hlans
dis co
eng aged
Ġdef ined
Ġimag inary
Ġdisp ersed
Ġart icle
Ġsimp licity
Ġbright er
peci al
Th ose
Th ree
Ġglo be
Ġsett ling
Ġpost ed
pleas e
Ġstreng then
Ġsole ly
che er
Ġele ven
Ġweak er
Ã¡y sk
Ġfif th
Ġund oubtedly
Ġfirm ness
Ġaccord ingly
know ledge
Ġmark et
Ġpict ured
Ġchurch yard
af ie
Ġdism ay
Ġdism ounted
dra wn
Ġmass ive
acqu ainted
Ġlim it
Ġretreat ed
Ġbreath less
Ġsmo ked
Ġkill ing
Ġprin ted
Ġsusp ense
Ġvain ly
law s
Ġstrugg ling
Ġmel ted
Ġwond ers
Ġmagn ific
mar riage
Ġshri ll
Ġindic ating
Ġthreat ening
Ġrecoll ect
Every thing
Ġmyst ic
Ġcomb ined
Ġinj ury
Ġmot ives
fall en
zh Ã¡ysk
Ġcorp oral
Ġble eding
irect ly
Ġmal ice
Count ess
Ġsevere ly
Ġstret ching
eff ect
Ġdecl ined
sil ence
Ġrecommend ed
Ġstoo ping
Ġterrif ied
Ġinevit ably
Ġpil ot
Ġconvers ations
Ġconfident ial
Ġweap ons
Ġmag ic
Ġdiplom atic
Ġembarrass ment
Ġhal ted
Ġamuse ment
Ġinsp ired
Ġindign ation
Ġling ering
Ġgrie ved
Ġpier cing
Ġdefe at
Ġlin en
Ġet c
Ġencoura ged
Ġfel ic
neigh bour
Ġtravell er
esp ite
Ġsall ow
tro ops
Ġze al
Ġasser t
Ġdrago ons
Hall oa
aus set
Ġsen ior
ÃŃts yn
Ġsympt oms
extra ordinary
Ġclum sy
! _
! --
) ;
B oy
C H
G u
K ing
M onsieur
M ean
S ection
T H
T I
T R
_ )
a ver
a ired
b an
b are
b road
c ru
d iss
d ressed
e lf
e ars
e enth
g ic
g reg
h ig
h ung
m arked
o il
p et
p han
p ort
p ale
r idge
r Ã¡s
s low
t is
u ary
v ich
w ale
he tor
re ck
er ation
Ġb ark
Ġb orrow
ing ling
Ġf ishing
Ġf erv
Ġto t
Ġto ken
Ġto mb
ar ms
Ġin k
Ġin ward
Ġin ser
an x
Ġp ed
Ġp as
Ġn in
Ġbe nd
Ġbe es
Ġbe ef
ot on
ut s
Ġg la
st ern
ld er
Ġwas hed
Ġth reshold
Ġu lt
et ch
ad ays
ir ch
al k
ro p
ro ve
Ġst olen
ere shch
if ting
Ġme ek
ĠM other
ke pt
Ġso il
ĠâĢľ âĢĺ
ĠH ill
ĠP res
il ight
Ġsu llen
ich na
âĢĶ âĢĺ
ĠS to
ĠS hall
ĠB right
ĠB arn
Ġor n
Ġex asper
ind ic
Ġman agement
li ance
Ġwe ighed
um s
ĠD or
ĠD ay
ĠD ear
ĠD unyÃ¡sha
ĠD rubetsk
Ġab oard
ĠC lair
ag ues
Ġj un
od ka
Ġam using
ĠL I
Ġsp in
Ġsp ine
Ġsp ared
ving s
ving ly
ĠR evolution
ru p
Ġpo nd
Ġpo verty
Ġthought fully
sh ot
Ġpe ering
Ġown ers
Ġper ils
Ġcha ins
Ġimp l
ĠK rem
Ġspe ci
Ġfl ashed
Ġra il
ross ed
Ġpleas ures
ser vation
Ġsl ate
sk aya
Ġdra gging
Ġmor ose
Ġsub ord
Ġsub lime
Ġref resh
Ġcor ners
lic ated
act ions
gr am
og ue
Ġcr ushed
br ing
Ġfin ishing
Ġins ist
Ġdoub ted
ĠSo on
room s
ĠBe ausset
ĠY OU
Ġopp ress
cle ar
go vern
Ġvill ain
Ġstra gg
nat ure
Ġlaw yer
every body
Ġswe ep
Ġsum mit
Ġbright ened
Ġpurp le
ÃŃn ichna
sc ar
Ġmaster s
inter val
St ubb
Ġcop ies
Ġele ments
Ġele phant
iam ond
Ġport ion
ĠEvery one
Ġwhisp ers
Ġdeser ve
dist inct
Ġcas ks
Ġenjoy ing
certain ly
athe mat
Ġretreat ing
Ġcast ing
Ġlie utenant
Ġfle e
pass ion
Ġcoun sel
Ġspread ing
Ġmast s
Ġinno cence
cal m
Ġattend ant
Ġknock ing
Ġembra ce
Ġimpati ently
clo sed
Ġspl it
Ġbenef it
Ġbitter ly
Ġhes itation
Ġamaz ed
