{"<s>":0,"<pad>":1,"</s>":2,"<unk>":3,"<mask>":4,"!":5,"\"":6,"#":7,"$":8,"%":9,"&":10,"'":11,"(":12,")":13,"*":14,"+":15,",":16,"-":17,".":18,"/":19,"0":20,"1":21,"2":22,"3":23,"4":24,"5":25,"6":26,"7":27,"8":28,"9":29,":":30,";":31,"<":32,"=":33,">":34,"?":35,"@":36,"A":37,"B":38,"C":39,"D":40,"E":41,"F":42,"G":43,"H":44,"I":45,"J":46,"K":47,"L":48,"M":49,"N":50,"O":51,"P":52,"Q":53,"R":54,"S":55,"T":56,"U":57,"V":58,"W":59,"X":60,"Y":61,"Z":62,"[":63,"\\":64,"]":65,"^":66,"_":67,"`":68,"a":69,"b":70,"c":71,"d":72,"e":73,"f":74,"g":75,"h":76,"i":77,"j":78,"k":79,"l":80,"m":81,"n":82,"o":83,"p":84,"q":85,"r":86,"s":87,"t":88,"u":89,"v":90,"w":91,"x":92,"y":93,"z":94,"{":95,"|":96,"}":97,"~":98,"¡":99,"¢":100,"£":101,"¤":102,"¥":103,"¦":104,"§":105,"¨":106,"©":107,"ª":108,"«":109,"¬":110,"®":111,"¯":112,"°":113,"±":114,"²":115,"³":116,"´":117,"µ":118,"¶":119,"·":120,"¸":121,"¹":122,"º":123,"»":124,"¼":125,"½":126,"¾":127,"¿":128,"À":129,"Á":130,"Â":131,"Ã":132,"Ä":133,"Å":134,"Æ":135,"Ç":136,"È":137,"É":138,"Ê":139,"Ë":140,"Ì":141,"Í":142,"Î":143,"Ï":144,"Ð":145,"Ñ":146,"Ò":147,"Ó":148,"Ô":149,"Õ":150,"Ö":151,"×":152,"Ø":153,"Ù":154,"Ú":155,"Û":156,"Ü":157,"Ý":158,"Þ":159,"ß":160,"à":161,"á":162,"â":163,"ã":164,"ä":165,"å":166,"æ":167,"ç":168,"è":169,"é":170,"ê":171,"ë":172,"ì":173,"í":174,"î":175,"ï":176,"ð":177,"ñ":178,"ò":179,"ó":180,"ô":181,"õ":182,"ö":183,"÷":184,"ø":185,"ù":186,"ú":187,"û":188,"ü":189,"ý":190,"þ":191,"ÿ":192,"Ā":193,"ā":194,"Ă":195,"ă":196,"Ą":197,"ą":198,"Ć":199,"ć":200,"Ĉ":201,"ĉ":202,"Ċ":203,"ċ":204,"Č":205,"č":206,"Ď":207,"ď":208,"Đ":209,"đ":210,"Ē":211,"ē":212,"Ĕ":213,"ĕ":214,"Ė":215,"ė":216,"Ę":217,"ę":218,"Ě":219,"ě":220,"Ĝ":221,"ĝ":222,"Ğ":223,"ğ":224,"Ġ":225,"ġ":226,"Ģ":227,"ģ":228,"Ĥ":229,"ĥ":230,"Ħ":231,"ħ":232,"Ĩ":233,"ĩ":234,"Ī":235,"ī":236,"Ĭ":237,"ĭ":238,"Į":239,"į":240,"İ":241,"ı":242,"Ĳ":243,"ĳ":244,"Ĵ":245,"ĵ":246,"Ķ":247,"ķ":248,"ĸ":249,"Ĺ":250,"ĺ":251,"Ļ":252,"ļ":253,"Ľ":254,"ľ":255,"Ŀ":256,"ŀ":257,"Ł":258,"ł":259,"Ń":260,"Ġt":261,"he":262,"Ġa":263,"čĊ":264,"in":265,"Ġthe":266,"Ġw":267,"Ġs":268,"re":269,"Ġo":270,"nd":271,"âĢ":272,"ha":273,"er":274,"ou":275,"ed":276,"Ġb":277,"is":278,"it":279,"ing":280,"Ġm":281,"en":282,"on":283,"Ġand":284,"Ġf":285,"Ġc":286,"Ġto":287,"Ġof":288,"Ġh":289,"or":290,"es":291,"Ġd":292,"ll":293,"as":294,"Ġhe":295,"ar":296,"Ġin":297,"at":298,"an":299,"le":300,"Ġp":301,"Ġha":302,"Ġn":303,"om":304,"hat":305,"Ġl":306,"âĢľ":307,"ĠI":308,"âĢĿ":309,"ow":310,"Ġbe":311,"ot":312,"im":313,"ut":314,"id":315,"ly":316,"ic":317,"Ġg":318,"st":319,"se":320,"Ġthat":321,"Ġe":322,"âĢĻ":323,"ld":324,"Ġwas":325,"ve":326,"Ġy":327,"ent":328,"Ġhis":329,"gh":330,"Ġit":331,"Ġth":332,"ce":333,"Ġon":334,"ith":335,"Ġre":336,"ion":337,"ver":338,"ay":339,"Ġyou":340,"Ġu":341,"Ġwith":342,"et":343,"Ġas":344,"Ġwh":345,"ad":346,"ir":347,"al":348,"ur":349,"ro":350,"Ġhad":351,"ght":352,"Ġfor":353,"Ġnot":354,"Ġst":355,"ere":356,"her":357,"Ġat":358,"ch":359,"Ġhim":360,"ri":361,"Ġher":362,"Ġsa":363,"oo":364,"ould":365,"Ġan":366,"ct":367,"ĠT":368,"ter":369,"and":370,"ess":371,"ain":372,"if":373,"Ġse":374,"Ġis":375,"Ġme":376,"ĠM":377,"ke":378,"ĠA":379,"Ġso":380,"ill":381,".âĢĿ":382,"Ġmy":383,"ĠâĢľ":384,"am":385,"ck":386,"ore":387,"ĠH":388,"all":389,"ĠP":390,"rom":391,"pe":392,"Ġbut":393,"ra":394,"Ġall":395,"ss":396,"il":397,"the":398,"Ġsu":399,"ich":400,"Ġsaid":401,"ome":402,"Ġshe":403,"qu":404,"th":405,"âĢĶ":406,"Ġhave":407,"ĠS":408,"ight":409,"ĠB":410,"Ġby":411,"Ġde":412,"to":413,"ble":414,"ge":415,",âĢĿ":416,"Ġk":417,"Ġsh":418,"Ġup":419,"hen":420,"pp":421,"Ġcon":422,"Ġfrom":423,"lf":424,"Ġwere":425,"ell":426,"ard":427,"ul":428,"em":429,"Ġr":430,"ers":431,"very":432,"Ġthis":433,"ant":434,"out":435,"Ġne":436,"nt":437,"Ġdo":438,"ous":439,"Ġle":440,"ook":441,"Ġor":442,"est":443,"ation":444,"ĠThe":445,"Ġex":446,"ust":447,"Ġwhich":448,"Ġwho":449,"Ġv":450,"one":451,"ound":452,"us":453,"ol":454,"?âĢĿ":455,"ong":456,"ĠĠ":457,"el":458,"ĠW":459,"ind":460,"red":461,"self":462,"Ġkn":463,"Ġone":464,"art":465,"Ġal":466,"Ġman":467,"our":468,"Ġno":469,"ost":470,"ast":471,"Ġthey":472,"!âĢĿ":473,"li":474,"own":475,"un":476,"ak":477,"Ġout":478,"ood":479,"Ġli":480,"Ġwe":481,"Ġbeen":482,"ist":483,"Ġthere":484,"um":485,"Ġwould":486,"Ġcom":487,"ate":488,"ry":489,"Ġthem":490,"ĠN":491,"Ġwhat":492,"han":493,"ĠD":494,"lo":495,"hed":496,"itt":497,"ough":498,"The":499,"Ġwhen":500,"Ġab":501,"ap":502,"rin":503,"ĠC":504,"Ġag":505,"ort":506,"Ġwor":507,"la":508,"ame":509,"Ġlook":510,"Ġun":511,"..":512,"ven":513,"Ġro":514,"ure":515,"ther":516,"hing":517,"Ġar":518,"ag":519,"Ġcould":520,"Ġtheir":521,"way":522,"Ġj":523,"ive":524,"ig":525,"Ġare":526,"ity":527,"op":528,"Ġif":529,"ered":530,"able":531,"urn":532,"per":533,"nder":534,"os":535,"ved":536,"Ġfa":537,"Ġqu":538,"ĠHe":539,"Ġany":540,"Ġyour":541,"Ã¡":542,"ide":543,"ect":544,"ĠF":545,"Ġtim":546,"ff":547,"Ġgo":548,"ress":549,"Ġfe":550,"reat":551,"Ġnow":552,"Ġinto":553,"ie":554,"au":555,"Ġdid":556,"od":557,"ite":558,"fore":559,"Ġmore":560,"ice":561,"Ġsome":562,"Ġam":563,"ought":564,"ĠL":565,"Ġsp":566,"other":567,"ab":568,"Ã³":569,"ving":570,"ĠE":571,"ount":572,"ĠG":573,"Ġknow":574,"ĠMr":575,"ep":576,"Ġwill":577,"Ġhand":578,"ance":579,"ier":580,"ĠR":581,"cc":582,"Ġvery":583,"ack":584,"ked":585,"ass":586,"Ġpre":587,"ĠAnd":588,"ine":589,"pt":590,"ally":591,"Ġthen":592,"Ġagain":593,"ake":594,"fter":595,"Ġoff":596,"Ġother":597,"Ġtime":598,"Ġcan":599,"Ġsee":600,"of":601,"ious":602,"ose":603,"Ġpro":604,"Ġim":605,"ĠJ":606,"here":607,"ire":608,"ence":609,"are":610,"ile":611,"Ġad":612,"ary":613,"Ġonly":614,"me":615,"Ġabout":616,"Ġover":617,"ittle":618,"ment":619,"ru":620,"Ġsay":621,"Ġlike":622,"wn":623,"Ġtw":624,"ather":625,"Ġpo":626,"Ġdown":627,"ip":628,"Ġtoo":629,"Ġco":630,"ac":631,"ne":632,"Ġus":633,"Ġthan":634,"Ġdis":635,"be":636,"ber":637,"rew":638,"Ġsm":639,"Ġen":640,"ĠĠĠĠ":641,"uch":642,"ish":643,"ness":644,"end":645,"Ġbefore":646,"age":647,"ĠBut":648,"Ġshould":649,"ink":650,"Ġsha":651,"his":652,"Ġhow":653,"ud":654,"ies":655,"ife":656,"ick":657,"ated":658,"ove":659,"Ġlittle":660,"You":661,"ng":662,"ars":663,"Ġrem":664,"Ġbo":665,"Ġday":666,"ree":667,"ade":668,"Ġch":669,"ÃŃ":670,"ĠO":671,"Ġevery":672,"ov":673,"ierre":674,"iss":675,"Ġupon":676,"Ġey":677,"Ġbr":678,"rince":679,"that":680,"ull":681,"ings":682,"ĠIt":683,"ward":684,"tain":685,"ried":686,"right":687,"Ġlong":688,"ful":689,"ty":690,"Ġold":691,"Ġunder":692,"led":693,"Ġafter":694,"Ġhimself":695,"ions":696,"Ġthought":697,"Ġbeg":698,"ran":699,"Ġsuch":700,"sh":701,"man":702,"Ġgr":703,"Ġseem":704,"Ġfir":705,"ssi":706,"Ġhas":707,"for":708,"ft":709,"Ġpe":710,"ced":711,"Ġmust":712,"Ġhead":713,"ren":714,"Ġway":715,"Ġits":716,"ady":717,"omet":718,"ning":719,"Ġwent":720,"wh":721,"Ġeven":722,"ily":723,"ened":724,"Ġmuch":725,"Ġtwo":726,"Ġpart":727,"int":728,"sha":729,"Ġcomp":730,"ach":731,"Ġour":732,"Ġrep":733,"ĠPierre":734,"Ġcame":735,"ave":736,"pect":737,"cess":738,"les":739,"Ġgreat":740,"Ġeyes":741,"we":742,"Ġnever":743,"oll":744,"Ġthink":745,"ond":746,"Ġturn":747,"Ġown":748,"Ġcome":749,"Ġback":750,"Ġarm":751,"ark":752,"Ġbl":753,"Ġroom":754,"Ġthr":755,"Ġface":756,"Ġper":757,"de":758,"ces":759,"not":760,"Ġfirst":761,"Ġbec":762,"thing":763,"ise":764,"av":765,"Ġgood":766,"ons":767,"Ġmade":768,"Ġpl":769,"Ġcha":770,"ord":771,"Ġaway":772,"ue":773,"Ġexp":774,"Ġgl":775,"Ġthese":776,"Ġlet":777,"Ġlooked":778,"Ġmight":779,"Ġstill":780,"ouse":781,"Ġsc":782,"hale":783,"ign":784,"Ġwhere":785,"ild":786,"Ġbet":787,"less":788,"Ġhere":789,"Ġho":790,"Ġcont":791,"Ġimp":792,"so":793,"ged":794,"ER":795,"Ġbeing":796,"sent":797,"ied":798,"te":799,"ause":800,"Ġdes":801,"ĠK":802,"row":803,"Ġspe":804,"Ġcount":805,"HA":806,"king":807,"Ġlast":808,"Ġint":809,"Ġpass":810,"Ġres":811,"Ġmay":812,"atÃ¡":813,"ĠPrince":814,"Ġsomet":815,"leas":816,"Ġatt":817,"aking":818,"Ġmen":819,"Ġ_":820,"Ġword":821,"Ġwithout":822,"ever":823,"ner":824,"ject":825,"Ġthose":826,"TER":827,"Ġob":828,"ps":829,"Ġhapp":830,"--":831,"PTER":832,"HAPTER":833,"Ġent":834,"iv":835,"ĠShe":836,"Ġ(":837,"CHAPTER":838,"Ġpr":839,"ted":840,"Ġpla":841,"Ġsame":842,"ways":843,"Ġret":844,"with":845,"Ġseemed":846,"ener":847,"It":848,"Ġcons":849,"Ġlife":850,"atÃ¡sha":851,"Ġsaw":852,"Ġcomm":853,"ling":854,"Ã©":855,"elt":856,"rench":857,"Ġjust":858,"Ġwell":859,"ci":860,"iz":861,"Ġhar":862,"And":863,"âĢĺ":864,"ub":865,"He":866,"ath":867,"oment":868,"Ã³v":869,"Ġye":870,"was":871,"Ġmost":872,"Ġfl":873,"ĠSt":874,"Ġra":875,"ared":876,"ory":877,"ors":878,"atter":879,"oe":880,"Ġop":881,"Ġget":882,"Ġleft":883,"Ġbegan":884,"Ġdon":885,"ew":886,"Ġtr":887,"But":888,"med":889,"iff":890,"ently":891,"Ġke":892,"igh":893,"com":894,"att":895,"but":896,"den":897,"Ġacc":898,"Ġfeel":899,"Ġyoung":900,"riend":901,"ex":902,"ished":903,"Ġvo":904,"Ġthough":905,"hes":906,"Ġthrough":907,"cy":908,"con":909,"Ġcl":910,"Ġanother":911,"iness":912,"pped":913,"ting":914,"Ġnothing":915,"ition":916,"Ġround":917,"na":918,"ction":919,"Ġnight":920,"Ġtell":921,"Ġfelt":922,"...":923,"Ġasked":924,"Ġheard":925,"Ġyet":926,"ĠAndrew":927,"up":928,"Ġmoment":929,"Ġfather":930,"ole":931,"Ġsat":932,"ans":933,"ĠFrench":934,"ations":935,"uck":936,"Ġap":937,"eth":938,"Ġwhile":939,"Ġtook":940,"ret":941,"Ġalways":942,"owed":943,"ves":944,"Ġser":945,"ĠV":946,"ks":947,"Ġever":948,"ger":949,"ody":950,"oth":951,"Ġwant":952,"Ġdoor":953,"get":954,"Ġev":955,"ople":956,"Ġsomething":957,"ĠYou":958,"Ãº":959,"Ġhands":960,"ostÃ³v":961,"Ġmar":962,"Ġcall":963,"Ġhouse":964,"Ġright":965,"air":966,"Ġput":967,"Ġlo":968,"ister":969,"Ġapp":970,"Ġwat":971,"cl":972,"ĠIn":973,"Ġwhale":974,"Ġnew":975,"Yes":976,"Ġfriend":977,"ĠĠĠĠĠĠĠĠ":978,"Ġdear":979,"Ġmake":980,"ĠNatÃ¡sha":981,"der":982,"rincess":983,"you":984,"ross":985,"Ġdist":986,"Ġshall":987,"Ġtal":988,"Ġwr":989,"ertain":990,"What":991,"sw":992,"Ġfound":993,"Ġsoon":994,"Ġwhole":995,"Ġcar":996,"Ġonce":997,"Ã³n":998,"Ġend":999,"hy":1000,"Ġte":1001,"Ġreg":1002,"ched":1003,"ens":1004,"most":1005,"ron":1006,"ict":1007,"him":1008,"Ġtake":1009,"oy":1010,"Ġside":1011,"ĠMiss":1012,"Ġpleas":1013,"ev":1014,"men":1015,"eneral":1016,"Ġquite":1017,"ser":1018,"Ġseen":1019,"Ġsl":1020,"Ġplace":1021,"stand":1022,"Ġknew":1023,"co":1024,"Ġdone":1025,"aid":1026,"arly":1027,"ressed":1028,"ined":1029,"Ġpeople":1030,"Ġclo":1031,"icul":1032,"sk":1033,"Ġreturn":1034,"ase":1035,"Ġgot":1036,"Ġmind":1037,"ĠJoe":1038,"mer":1039,"Ġgoing":1040,"Ġlight":1041,"Ġinst":1042,"Ġmany":1043,"Ġadd":1044,"ef":1045,"Ġthree":1046,"Ġset":1047,"aught":1048,"Ġoffic":1049,"Ġfell":1050,"Ġansw":1051,"aw":1052,"sp":1053,"arge":1054,"read":1055,"Ġdra":1056,"ating":1057,"Ġlove":1058,"ower":1059,"ully":1060,"Ġocc":1061,"ĠRostÃ³v":1062,"ained":1063,"Ġturned":1064,"ait":1065,"su":1066,"ussi":1067,"Ġmo":1068,"ix":1069,"Ġappe":1070,"Ġwind":1071,"had":1072,"amp":1073,"oke":1074,"Ġlooking":1075,"Ġboy":1076,"Ġmor":1077,"Ġtold":1078,"cept":1079,"ised":1080,"Ġsupp":1081,"Ġcap":1082,"ace":1083,"kh":1084,"entle":1085,"ention":1086,"Ġmyself":1087,"Ġhu":1088,"liz":1089,"wards":1090,"Ġac":1091,"Ġcour":1092,"ail":1093,"aring":1094,"Ġwhom":1095,"Ġsil":1096,"Ġconf":1097,"Ġcle":1098,"urp":1099,"Ġsec":1100,"aken":1101,"ten":1102,"Ġheart":1103,"ows":1104,"ÃŃs":1105,"Ġhaving":1106,"ĠThey":1107,"abeth":1108,"lizabeth":1109,"lp":1110,"Ġbecause":1111,"Ġaff":1112,"Ġsub":1113,"Ġhor":1114,"Ġvoice":1115,"vers":1116,"cow":1117,"Ġsw":1118,"arn":1119,"old":1120,"oub":1121,"Ġfar":1122,"Ġwom":1123,"ason":1124,"ual":1125,"Ġstr":1126,"ĠAn":1127,"ither":1128,"Ġchan":1129,"oscow":1130,"by":1131,"Ġem":1132,"po":1133,"sel":1134,"Ġsister":1135,"Ġref":1136,"Ġpers":1137,"owing":1138,"Ġthing":1139,"ract":1140,"ween":1141,",âĢĶ":1142,"Ġpresent":1143,"ĠMary":1144,"Ġherself":1145,"Well":1146,"ĠThere":1147,"Ġrest":1148,"ĠWhat":1149,"Ġcor":1150,"ssible":1151,"Ġwords":1152,"ĠRussi":1153,"ĠX":1154,"ering":1155,"dden":1156,"ial":1157,"mper":1158,"lic":1159,"lied":1160,"cei":1161,"Ġchild":1162,"ible":1163,"ince":1164,"Ġstood":1165,"Ġgeneral":1166,"Ġwork":1167,"Ġter":1168,"any":1169,"Ġstre":1170,"its":1171,"Ġdiff":1172,"Ġran":1173,"Ġboth":1174,"Ġhard":1175,"Ġgive":1176,"which":1177,"now":1178,"Ġfam":1179,"day":1180,"Ġquest":1181,"ents":1182,"Ġfew":1183,"Ġfoll":1184,"Ġcried":1185,"hab":1186,"ense":1187,"Ġsudden":1188,"lie":1189,"fully":1190,"ison":1191,"ired":1192,"ĠâĢĺ":1193,"body":1194,"Ġche":1195,"Ġhalf":1196,"ham":1197,"Ġconsid":1198,"ĠTom":1199,"No":1200,"Ġfind":1201,"olas":1202,"hind":1203,"ĠMoscow":1204,"ins":1205,"icholas":1206,"ately":1207,"Ġbus":1208,"Ġsle":1209,"Ġgu":1210,"Ġstran":1211,"Ġmorning":1212,"II":1213,"Ġcertain":1214,"ief":1215,"mperor":1216,"Ġadv":1217,"oot":1218,"imp":1219,"ery":1220,"Ġkind":1221,"Ġpoint":1222,"Ġhome":1223,"Ġgentle":1224,"Ġarmy":1225,"Ġact":1226,"Ġstand":1227,"hether":1228,"ready":1229,"ical":1230,"Ġread":1231,"Ġgave":1232,"Ġagainst":1233,"ock":1234,"Ġbetween":1235,"Ġind":1236,"Ġbetter":1237,"oud":1238,"Ġanything":1239,"Ġamong":1240,"Ġwal":1241,"gg":1242,"gether":1243,"cing":1244,"head":1245,"Ġwar":1246,"Oh":1247,"fort":1248,"Ġship":1249,"lack":1250,"Ġunderstand":1251,"iet":1252,"ited":1253,"Ġfire":1254,"Ġinter":1255,"Ġel":1256,"Ġworld":1257,"Ġsmall":1258,"Ġexpress":1259,"har":1260,"Ġcommand":1261,"Ġmatter":1262,"Ġlay":1263,"irc":1264,"ult":1265,"apole":1266,"Ġletter":1267,"apoleon":1268,"Ġmother":1269,"used":1270,"Ġgi":1271,"Ġste":1272,"she":1273,"Ġsold":1274,"Ġ1":1275,"In":1276,"ured":1277,"inu":1278,"my":1279,"Ġdark":1280,"Ġhope":1281,"ying":1282,"ching":1283,"ĠEmperor":1284,"Ġthings":1285,"Ġvis":1286,"light":1287,"ern":1288,"Ġair":1289,"uring":1290,"ably":1291,"ken":1292,"ides":1293,"Ġmean":1294,"itting":1295,"ale":1296,"Ġhour":1297,"act":1298,"ĠWhen":1299,"fe":1300,"unt":1301,"Ġbro":1302,"aut":1303,"ian":1304,"Ġalso":1305,"az":1306,"Ġbelie":1307,"ls":1308,"Ġaw":1309,"Ġinv":1310,"ures":1311,"selves":1312,"ĠHis":1313,"Ġcur":1314,"Ġopen":1315,"ĠIf":1316,"ĠThat":1317,"ute":1318,"pl":1319,"ĠAs":1320,"Ġfore":1321,"imes":1322,"xt":1323,"Ġgone":1324,"Ġsound":1325,"Ġdire":1326,"rying":1327,"gr":1328,"reg":1329,"orry":1330,"Ġalmost":1331,"Ġcalled":1332,"ane":1333,"Ġhum":1334,"Ġexc":1335,"Ãºz":1336,"no":1337,"Ġlist":1338,"ĠThis":1339,"Ġsir":1340,"ingle":1341,"Ġtaken":1342,"Ġnat":1343,"ĠElizabeth":1344,"ceived":1345,"Ġname":1346,"erest":1347,"Ġdro":1348,"Ġreplied":1349,"Ġhelp":1350,"utÃºz":1351,"ets":1352,"utÃºzov":1353,"Ġdoes":1354,"Ġwife":1355,"ĠMrs":1356,"Ġbed":1357,"Ġmon":1358,"Ġbehind":1359,"ime":1360,"Ġpassed":1361,"ya":1362,"rem":1363,"Ġinf":1364,"Ġalong":1365,"Ġsuddenly":1366,"haps":1367,"ĠHer":1368,"Ġrec":1369,"Ġdec":1370,"bed":1371,"Ġwhite":1372,"Ġalready":1373,"ached":1374,"Ġsea":1375,"ield":1376,"Ġdays":1377,"oun":1378,"Ġeach":1379,"attle":1380,"Ġsince":1381,"Ġhigh":1382,"Ġinde":1383,"ĠNicholas":1384,"...âĢĿ":1385,"Ġhear":1386,"Ġass":1387,"Ġbrought":1388,"osition":1389,"Ġhold":1390,"og":1391,"pre":1392,"Ġremem":1393,"ash":1394,"Ġnear":1395,"Ġspeak":1396,"ĠGod":1397,"ank":1398,"ĠWe":1399,"Ġenough":1400,"Ġeverything":1401,"Ġcr":1402,"There":1403,"ection":1404,"Ġmin":1405,"Ġless":1406,"br":1407,"iled":1408,"Ġtable":1409,"ĠFor":1410,"She":1411,"cious":1412,"Ġwait":1413,"Ġfin":1414,"Ġwhy":1415,"Ġboat":1416,"Ġbre":1417,"Ġcare":1418,"ates":1419,"ĠNapoleon":1420,"land":1421,"there":1422,"equ":1423,"enn":1424,"where":1425,"ility":1426,"Ġkeep":1427,"ool":1428,"Ġexpect":1429,"ushed":1430,"from":1431,"mes":1432,"Ġfre":1433,"Ġtra":1434,"idd":1435,"Ġcontinu":1436,"Ġbest":1437,"ĠOn":1438,"Ġcannot":1439,"Ġyears":1440,"Ġwhether":1441,"Ġquestion":1442,"ided":1443,"Ġsmile":1444,"Ġshout":1445,"Ġevid":1446,"Ġsent":1447,"That":1448,"aster":1449,"iers":1450,"Ġtill":1451,"Mr":1452,"Ġsk":1453,"Ġdet":1454,"Ġins":1455,"ĠDo":1456,"khov":1457,"Ġnor":1458,"like":1459,"Ġblack":1460,"Ġinc":1461,"ances":1462,"Ġdoub":1463,"iment":1464,"ĠAhab":1465,"ards":1466,"Ġalone":1467,"Ġothers":1468,"ctor":1469,"aughter":1470,"Ġorder":1471,"Ġoften":1472,"Ġtimes":1473,"uc":1474,"Ġwish":1475,"Ġreason":1476,"Ġmis":1477,"ĠSo":1478,"olmes":1479,"Ġreturned":1480,"Ġbusiness":1481,"ants":1482,"ump":1483,"ski":1484,"Ġcourse":1485,"gs":1486,"Ġrel":1487,"Ġpoor":1488,"Ġcirc":1489,"aint":1490,"wing":1491,"Ġrun":1492,"what":1493,"ront":1494,"Ġwoman":1495,"Ġperson":1496,"Ġfull":1497,"ĠTh":1498,"Ġnext":1499,"aving":1500,"pro":1501,"ingly":1502,"Ġhur":1503,"ĠPrincess":1504,"Ġprison":1505,"When":1506,"Ġhon":1507,"room":1508,"Ġext":1509,"lock":1510,"Ã³nya":1511,"this":1512,"Ġgir":1513,"Ġord":1514,"ater":1515,"Ġunt":1516,"Ġsure":1517,"ude":1518,"have":1519,"riage":1520,"ĠAl":1521,"Ġsun":1522,"ĠBe":1523,"ounded":1524,"ments":1525,"cri":1526,"ms":1527,"Ġir":1528,"Ġcond":1529,"Ġfeeling":1530,"Ġleave":1531,"Ġri":1532,"),":1533,"were":1534,"Ġes":1535,"Ġeff":1536,"Ġdeath":1537,"ousand":1538,"Ġhowever":1539,"Ġofficer":1540,"ging":1541,"Ġfamily":1542,"sed":1543,"Ġreally":1544,"ĠAt":1545,"Ġstrong":1546,"enÃŃs":1547,"ati":1548,"lect":1549,"ĠThen":1550,"ops":1551,"Ġsuff":1552,"Ġrather":1553,"ĠKutÃºzov":1554,"enÃŃsov":1555,"arcy":1556,"du":1557,"Ġdisc":1558,"Ġevening":1559,"rowd":1560,"Ġdan":1561,"Ġlau":1562,"uten":1563,"ific":1564,"ĠPro":1565,"Ġinterest":1566,"mon":1567,"val":1568,"Ġlarge":1569,"Ġhist":1570,"Ġtogether":1571,"Ġsto":1572,"osed":1573,"Ġstrange":1574,"orrow":1575,"Ġrepe":1576,"Ġcoming":1577,"iously":1578,"Ġcase":1579,"Ġstep":1580,"Ġstru":1581,"Ġneed":1582,"erent":1583,"Ġdead":1584,"Ġtalk":1585,"Ġelse":1586,"ts":1587,"Ġtru":1588,"Ġuse":1589,"ĠRussian":1590,"look":1591,"Ġfall":1592,"illed":1593,"iling":1594,"Ġplay":1595,"Ġsign":1596,"airs":1597,"oul":1598,"oney":1599,"urpr":1600,"und":1601,"Ġask":1602,"ĠHolmes":1603,"Ġfour":1604,"ird":1605,"Ġshort":1606,"onder":1607,"Ġpower":1608,"âĢľâĢĺ":1609,"band":1610,"cha":1611,"ee":1612,"ĠY":1613,"Ġwater":1614,"Ġsort":1615,"ising":1616,"Ġchief":1617,"Ġfellow":1618,"Ġson":1619,"ening":1620,"Ġfront":1621,"ceed":1622,"ĠHow":1623,"enty":1624,"Ġmanner":1625,"They":1626,"Ġadm":1627,"uth":1628,"arted":1629,"Ġquick":1630,"berg":1631,"vo":1632,"ott":1633,"they":1634,"ĠNo":1635,"Ġhair":1636,"ung":1637,"Ġbelieve":1638,"bo":1639,"long":1640,"under":1641,"ĠDarcy":1642,"Ġroad":1643,"form":1644,"do":1645,"Ġbattle":1646,"Ġtowards":1647,"Ġear":1648,"Ġdev":1649,"Ġwhose":1650,"Pierre":1651,".âĢĻ":1652,"Ġide":1653,"isf":1654,"uff":1655,"outh":1656,"iew":1657,"Ġbecame":1658,"Ġadded":1659,"Ġdep":1660,"ized":1661,"My":1662,"Now":1663,"ho":1664,"ia":1665,"wor":1666,"Ġclose":1667,"ye":1668,"Ġopp":1669,"antly":1670,"Why":1671,"gu":1672,"ĠU":1673,"Ġill":1674,"Ġmove":1675,"This":1676,"Ġfoot":1677,"Ġcrowd":1678,"Ġserv":1679,"Ġbes":1680,"ĠBenn":1681,"Ġhappy":1682,"cle":1683,"ream":1684,"pend":1685,"ĠĠĠĠĠĠĠĠĠĠĠĠĠĠĠĠ":1686,"How":1687,"Ġknown":1688,"Ġchar":1689,"Ġtaking":1690,"Ġsaying":1691,"bur":1692,"utenberg":1693,"Ġlad":1694,"Ġgra":1695,"pping":1696,"Ġarri":1697,"ney":1698,"Ġhorse":1699,"Ġjo":1700,"ches":1701,"go":1702,"Ġsur":1703,"usband":1704,"Ġfact":1705,"Ġobser":1706,"Ġindeed":1707,"night":1708,"ring":1709,"peri":1710,"Ġtou":1711,"erable":1712,"nce":1713,"ĠQ":1714,"ĠMy":1715,"Ġeye":1716,"As":1717,"orm":1718,"Ġitself":1719,"umb":1720,"par":1721,"Ġtown":1722,"Ġthousand":1723,"Ġreceived":1724,"Ġanswered":1725,"Ġreal":1726,"Ġdeep":1727,"Ġlive":1728,"agg":1729,"ressing":1730,"Ġuntil":1731,"Ġgiven":1732,"Ġpur":1733,"Ġlost":1734,"ubb":1735,"dis":1736,"Ġwithin":1737,"Ġvill":1738,"ages":1739,"If":1740,"would":1741,"ĠPip":1742,"ib":1743,"Ġdin":1744,"Ġheld":1745,"Ġlady":1746,"Ġappro":1747,"Ġsleep":1748,"Ġexpression":1749,"Ġfeet":1750,"Ã³lo":1751,"ually":1752,"Ġconv":1753,"ended":1754,"when":1755,"Ġeas":1756,"them":1757,"Ġtried":1758,"Ġlow":1759,"ĠAll":1760,"empt":1761,"Ġentered":1762,"medi":1763,"Ġstopped":1764,"Ġsight":1765,"Ġcal":1766,"Ġred":1767,"veral":1768,"Ġmil":1769,"Ġfur":1770,"Ġbrother":1771,"Ġvisit":1772,"We":1773,"itted":1774,"Ġaround":1775,"who":1776,"Ġanswer":1777,"eng":1778,"Ġyes":1779,"Ġquiet":1780,"Ġkept":1781,"son":1782,"Ġwon":1783,"Ġcold":1784,"Ġexpl":1785,"side":1786,"Ġdri":1787,"Ġstra":1788,"Ġwindow":1789,"Ġdirect":1790,"Ġwha":1791,"Ġparticul":1792,"stood":1793,"Ġfear":1794,"Ġpossible":1795,"nat":1796,"Ġsurpr":1797,"Ġmoney":1798,"Ġwhis":1799,"ĠCount":1800,"Ġsoldiers":1801,"Ġmeet":1802,"ĠBor":1803,"Ġleast":1804,"lex":1805,"ĠLorry":1806,"app":1807,"ec":1808,"Ġdoubt":1809,"Ġprom":1810,"ĠSÃ³nya":1811,"Ġspoke":1812,"Ġcountry":1813,"cul":1814,"hand":1815,"asion":1816,"Ġsitting":1817,"res":1818,"Ġmere":1819,"ident":1820,"Ġwood":1821,"Ġthemselves":1822,"ĠDenÃŃsov":1823,"bert":1824,"Ġarms":1825,"anced":1826,"Ġlaw":1827,"Ġcol":1828,"Ġland":1829,"Ġtri":1830,"Ġbeaut":1831,"iced":1832,"Ġyourself":1833,"ĠAlice":1834,"At":1835,"On":1836,"cons":1837,"eg":1838,"Ġmet":1839,"Ġspir":1840,"Ġused":1841,"Ġhusband":1842,"Ġpap":1843,"though":1844,"Ġpret":1845,"Ġcountess":1846,"ug":1847,"Ġaf":1848,"Ġbur":1849,"Ġpain":1850,"gin":1851,"will":1852,"itude":1853,"Ġenem":1854,"orses":1855,"tered":1856,"Ġmer":1857,"Ġstate":1858,"Ġconc":1859,"Ġobject":1860,"Ġwanted":1861,"Ġmoved":1862,"Ġbody":1863,"Ġdef":1864,"Ġprev":1865,"Ġperhaps":1866,"Ã³lokhov":1867,"Ġbad":1868,"Ġfree":1869,"Ġtrue":1870,"ices":1871,"ety":1872,"Ġtro":1873,"Ġsecond":1874,"ities":1875,"Ġprince":1876,"Ġposition":1877,"Ġforward":1878,"raid":1879,"aged":1880,"versation":1881,"ĠâĢĻ":1882,"Ġdest":1883,"ĠNow":1884,"kn":1885,"use":1886,"Ġtran":1887,"Ġben":1888,"Ġeng":1889,"avis":1890,"lov":1891,"how":1892,"Ġduring":1893,"Ġrose":1894,"aff":1895,"ph":1896,"Ġcross":1897,"als":1898,"Ġcontinued":1899,"Ġevidently":1900,"Ġready":1901,"ement":1902,"Ġremained":1903,"Ġturning":1904,"avisham":1905,"iar":1906,"over":1907,"Ġform":1908,"rible":1909,"Ġappear":1910,"Ġwonder":1911,"Ġdaughter":1912,"Ġbegin":1913,"ey":1914,"ught":1915,"ural":1916,"Ġgre":1917,"ters":1918,"Ġjoy":1919,"ected":1920,"sm":1921,"Ġseveral":1922,"Ġabs":1923,"ingley":1924,"Ġmist":1925,"ship":1926,"Ġsoul":1927,"Ġprincess":1928,"laim":1929,"Ġgentleman":1930,"some":1931,"Ġflo":1932,"Ġrepeated":1933,"ror":1934,"Ġground":1935,"Ġstanding":1936,"wo":1937,"Ġimag":1938,"Ġrespect":1939,"Ġsubject":1940,"ĠBennet":1941,"mb":1942,"Ġnecess":1943,"Ġhuman":1944,"ĠQue":1945,"Ġpast":1946,"iding":1947,"Ġaccount":1948,"ek":1949,"Ġeither":1950,"Ġmaking":1951,"ler":1952,"Ġheav":1953,"Ġpol":1954,"Ġdisp":1955,"Ġlonger":1956,"ster":1957,"Ġsometimes":1958,"efarge":1959,"Ġhund":1960,"run":1961,"Ġut":1962,"Ġinqu":1963,"umst":1964,"Ġappeared":1965,"Prince":1966,"ĠTo":1967,"Ġabove":1968,"ĠEng":1969,"ĠProject":1970,"Ġhundred":1971,"Ġcreat":1972,"Ġhappened":1973,"regor":1974,"their":1975,"Ġidea":1976,"Ġenemy":1977,"aven":1978,"could":1979,"Ġest":1980,"ination":1981,"Ġseeing":1982,"Ġremain":1983,"Ġfollowed":1984,"orn":1985,"Ġglad":1986,"arb":1987,"akes":1988,"Ġchair":1989,"ixed":1990,"lovna":1991,"ush":1992,"So":1993,"gn":1994,"str":1995,"mediately":1996,"Ġhorses":1997,"ask":1998,"Ġgirl":1999,"eas":2000,"Ġfort":2001,"erence":2002,"Ġang":2003,"aptain":2004,"Ġclear":2005,"ote":2006,"utes":2007,"ĠHavisham":2008,"ously":2009,"Ġart":2010,"Not":2011,"Ġline":2012,"ĠWhale":2013,"Ġdrawing":2014,"ead":2015,"every":2016,"mick":2017,"Ġgall":2018,"emmick":2019,"been":2020,"ĠPet":2021,"perm":2022,"Ġopened":2023,"Ġremember":2024,"burg":2025,"Ġresol":2026,"Ġdinner":2027,",âĢĻ":2028,"Ġswe":2029,"Ġbook":2030,"Ġafraid":2031,"ob":2032,"off":2033,"racter":2034,"ah":2035,"come":2036,"your":2037,"Ġwall":2038,"Ġfing":2039,"Ġsum":2040,"rupt":2041,"Ġsimp":2042,"Ġbright":2043,"Ġmad":2044,"atch":2045,"Ġimport":2046,"Ġten":2047,"Ġwished":2048,"ative":2049,"ically":2050,"Ġhardly":2051,"Ġshouted":2052,"Ġve":2053,"ishing":2054,"otion":2055,"peci":2056,"appe":2057,"Ġcontr":2058,"Ġacqu":2059,"Ġacross":2060,"Ġsilent":2061,"Ã¨":2062,"Ġreco":2063,"ĠBingley":2064,"Ġview":2065,"ĠGutenberg":2066,"comp":2067,"Ġslow":2068,"Do":2069,"Ġbit":2070,"cell":2071,"irt":2072,"Ġstay":2073,"Ġmeans":2074,"yd":2075,"Ġsy":2076,"Ġmus":2077,"Ġcause":2078,"Ġtoward":2079,"ots":2080,"Ã¡n":2081,"NatÃ¡sha":2082,"fl":2083,"ped":2084,"Ġable":2085,"eness":2086,"Ġcut":2087,"stell":2088,"Ġforg":2089,"Ġlaugh":2090,"cher":2091,"Ġprop":2092,"Ġtalking":2093,"Ġcommander":2094,"Ġvillage":2095,"acc":2096,"pid":2097,"rink":2098,"cont":2099,"Ġpleasure":2100,"Ġwomen":2101,"Ġsit":2102,"Ġsad":2103,"lled":2104,"Ġpurp":2105,"iful":2106,"Ġdoing":2107,"tya":2108,"Ġtears":2109,"Ġtre":2110,"oura":2111,"Ġball":2112,"Ġmur":2113,"Ġdread":2114,"Ġattention":2115,"Ġdifferent":2116,"Ġconsider":2117,"Ġstruck":2118,"stella":2119,"rown":2120,"Ġcra":2121,"une":2122,"Ã©tya":2123,"Ġregard":2124,"Ġdifficul":2125,"Then":2126,"mp":2127,"ming":2128,"inging":2129,"Ġlate":2130,"ĠJane":2131,"Ġremark":2132,"lish":2133,"ton":2134,"Ġbreat":2135,"Ġmouth":2136,"tern":2137,"Ġsays":2138,"Ġdesp":2139,"Ġsilence":2140,"ĠHerbert":2141,"Th":2142,"Ġconversation":2143,"ular":2144,"Ġprof":2145,"said":2146,"inion":2147,"alth":2148,"Ġregiment":2149,"ÃŃn":2150,"Ġmention":2151,"asÃŃ":2152,"Ġlif":2153,"ssess":2154,"isted":2155,"....":2156,"oint":2157,"Ġsix":2158,"Ġtor":2159,"Ġimpo":2160,"more":2161,"Ġtone":2162,"Ġfive":2163,"Ġca":2164,"Ġformer":2165,"Ġusual":2166,"Ġofficers":2167,"Ġequ":2168,"Ġshow":2169,"ĠDefarge":2170,"Ġslight":2171,"Ġbreak":2172,"Ġfan":2173,"Ġdanger":2174,"aj":2175,"Ġfig":2176,"Ġfine":2177,"ution":2178,"Ġshar":2179,"ÃŃt":2180,"ĠAnna":2181,"bour":2182,"Ġsqu":2183,"ĠWh":2184,"arent":2185,"Ġ*":2186,"oup":2187,"Ġkiss":2188,"Ġvar":2189,"Ġfaces":2190,"Ġpres":2191,"mand":2192,"sc":2193,"well":2194,"Ġblood":2195,"Ġoccasion":2196,"Ġwalked":2197,"equeg":2198,"lete":2199,"Ġglo":2200,"ĠMad":2201,"ersburg":2202,"Ġquar":2203,"Ġplain":2204,"ining":2205,"Ġmaster":2206,"Ġstri":2207,"Ġsoci":2208,"Ġleg":2209,"again":2210,"ĠGregor":2211,"Ġsatisf":2212,"Ġfriends":2213,"pecially":2214,"yed":2215,"yond":2216,"Ġhat":2217,"Ġnews":2218,"Ġaction":2219,"Ġsense":2220,"Ġgaz":2221,"Ġseems":2222,"Ġsett":2223,"Ġoccur":2224,"Ġdrew":2225,"Ġthou":2226,"ĠWemmick":2227,"Ġlips":2228,"Ġoccup":2229,"ception":2230,"Ġpost":2231,"before":2232,"ĠOne":2233,"Ġthoughts":2234,"Ġcompany":2235,"Ġcorner":2236,"aggers":2237,"iting":2238,"Ġtherefore":2239,"ĠDÃ³lokhov":2240,"Ġyear":2241,"Ġhours":2242,"Ġimpossible":2243,"Ġbecome":2244,"Ah":2245,"fect":2246,"Ġpri":2247,"then":2248,"ĠOh":2249,"Ġsecret":2250,"wise":2251,"Ġimmediately":2252,"Ġadj":2253,"Ġreply":2254,"iddy":2255,"Ġstraight":2256,"asÃŃli":2257,"bb":2258,"vis":2259,"Ġdut":2260,"olk":2261,"umber":2262,"Ġunderstood":2263,"gl":2264,"ency":2265,"Ġcry":2266,"Ġdelight":2267,"Ġlead":2268,"usion":2269,"Ġanyone":2270,"overed":2271,"ĠXX":2272,"Ġ18":2273,"Ġtroops":2274,"All":2275,"time":2276,"Ã«":2277,"happ":2278,"itation":2279,"itions":2280,"Ġdress":2281,"Ġthus":2282,"Ġnoticed":2283,"Ġself":2284,"Ġfright":2285,"ĠWith":2286,"Ġfav":2287,"Ġled":2288,"Ġliving":2289,"Ġtwenty":2290,"Ġcoll":2291,"Ġcharacter":2292,"Ġhappiness":2293,"ives":2294,"ĠStubb":2295,"Ġchildren":2296,"ĠBorÃŃs":2297,"ang":2298,"ils":2299,"ublic":2300,"Ġcarried":2301,"Ġemb":2302,"Ġearth":2303,"ength":2304,"fast":2305,"pter":2306,"Ġpar":2307,"irst":2308,"should":2309,"gged":2310,"Ġsens":2311,"Ġbu":2312,"Ġreached":2313,"Ġstud":2314,"Ġsoft":2315,"ration":2316,"ager":2317,"Ġprep":2318,"Ġproper":2319,"Ġfeelings":2320,"clud":2321,"Ġcertainly":2322,"Ġcircumst":2323,"Ġwild":2324,"ones":2325,"Ġinstant":2326,"Ġbar":2327,"emp":2328,"Ġago":2329,"ively":2330,"Ġpeace":2331,"chan":2332,"oss":2333,"ondon":2334,"pleas":2335,"Ã¡v":2336,"ĠEstella":2337,"ledge":2338,"ize":2339,"house":2340,"Ġburn":2341,"cend":2342,"Ġminutes":2343,"ka":2344,"into":2345,"ouble":2346,"vern":2347,"ribut":2348,"Ġanx":2349,"Ġspeaking":2350,"Ġstreng":2351,"Ġbeside":2352,"Ġtrying":2353,"ats":2354,"Ġorders":2355,"itary":2356,"ancing":2357,"idge":2358,"idence":2359,"Ġgun":2360,"ĠNot":2361,"Ġrode":2362,"ccess":2363,"Ġplan":2364,"Ġchange":2365,"Ġsteps":2366,"inter":2367,"arked":2368,"Ġpull":2369,"urch":2370,"quest":2371,"Ġspo":2372,"To":2373,"Ġought":2374,"Ġhast":2375,"ceive":2376,"onel":2377,"ĠWhy":2378,"arer":2379,"while":2380,"Ġopinion":2381,"St":2382,"can":2383,"Ġcamp":2384,"ĠCh":2385,"ines":2386,"inary":2387,"Ġstart":2388,"Ġanim":2389,"Ġsol":2390,"pected":2391,"Ġrapid":2392,"Ġmonth":2393,"Ġquickly":2394,"inct":2395,"ssib":2396,"Ġhistor":2397,"uct":2398,"erg":2399,"Ġhop":2400,"Ġdiv":2401,"Ġbeyond":2402,"Ġstory":2403,"Ġexcell":2404,"Ġprob":2405,"somet":2406,"Ġlaid":2407,"ĠPÃ©tya":2408,"Ġlearn":2409,"ĠJaggers":2410,"Ġmerely":2411,"oured":2412,"tering":2413,"Ġsole":2414,"ustom":2415,"Ġcarriage":2416,"After":2417,"For":2418,"did":2419,"Ġpray":2420,"Ġnecessary":2421,"ma":2422,"arch":2423,"Ġlength":2424,"oose":2425,"Ġshowed":2426,"Ġcomfort":2427,"himself":2428,"bit":2429,"Ġtry":2430,"Ġcop":2431,"Ġthird":2432,"aded":2433,"cked":2434,"ĠHuck":2435,"Ġcommon":2436,"known":2437,"bs":2438,"des":2439,"Ġmine":2440,"ression":2441,"ission":2442,"retched":2443,"Ġsuppose":2444,"ĠDoctor":2445,"Ġiron":2446,"Ġesc":2447,"Ġcalm":2448,"With":2449,"part":2450,"erm":2451,"Ġmut":2452,"Ġfixed":2453,"ified":2454,"Ġlean":2455,"Ġworth":2456,"Ġenc":2457,"joy":2458,"Ġpat":2459,"thought":2460,"ĠLondon":2461,"Ġthinking":2462,"Ġblue":2463,"Ġscar":2464,"Ġwhales":2465,"Ġpretty":2466,"Ġpurpose":2467,"pla":2468,"ray":2469,"Ġfield":2470,"leep":2471,"ĠCaptain":2472,"Ġgetting":2473,"Ġaccom":2474,"ĠVasÃŃli":2475,"Ġeffect":2476,"ĠPetersburg":2477,"Ġed":2478,"Ġwine":2479,"Ġfast":2480,"Ġtruth":2481,"Ġslowly":2482,"Tom":2483,"hood":2484,"low":2485,"Ġdream":2486,"let":2487,"Ġmeant":2488,"ĠAr":2489,"Ġexperi":2490,"els":2491,"itten":2492,"Ġentire":2493,"Ġharpo":2494,"Ġpursu":2495,"che":2496,"even":2497,"Ġru":2498,"orted":2499,"Ġcompan":2500,"Elizabeth":2501,"eks":2502,"ze":2503,"Ġwounded":2504,"Ġsn":2505,"Ġmem":2506,"Is":2507,"morrow":2508,"Ġconst":2509,"iece":2510,"aves":2511,"Ġaffection":2512,"Ġfresh":2513,"down":2514,"rance":2515,"Ġbott":2516,"Ġele":2517,"âĢĶâĢĿ":2518,"Ġsmoke":2519,"Ġpeas":2520,"Ġglass":2521,"Ġglanced":2522,"Ġhistory":2523,"hold":2524,"iol":2525,"tr":2526,"ette":2527,"ĠMan":2528,"alled":2529,"Ġrecogn":2530,"olkÃ³n":2531,"Ġcoach":2532,"Ġraised":2533,"Ġterrible":2534,"Ġnature":2535,"ĠQueequeg":2536,"rum":2537,"Ġweak":2538,"ĠLuc":2539,"Ġsoldier":2540,"dd":2541,"Ġlegs":2542,"Ġjud":2543,"Ã¡y":2544,"ĠLet":2545,"Ġcoat":2546,"ickham":2547,"Ġcomplete":2548,"Ġwatch":2549,"Ġemp":2550,"Ġhurried":2551,"laimed":2552,"Ġfif":2553,"sequ":2554,"ilt":2555,"aching":2556,"Ġprisoner":2557,"arbuck":2558,"ians":2559,"little":2560,"ality":2561,"ollins":2562,"Ġcourt":2563,"Ġstrength":2564,"clock":2565,"iam":2566,"mn":2567,"hapter":2568,"ains":2569,"ored":2570,"Ġpossess":2571,"Ġdistance":2572,"Ġwaiting":2573,"iddle":2574,"Ġmovement":2575,"eath":2576,"ient":2577,"see":2578,"Ġund":2579,"Ġboys":2580,"Ġcaptain":2581,"Ġlistened":2582,"Ġladies":2583,"Ġnone":2584,"Ġgrew":2585,"ĠAust":2586,"ners":2587,"Ġsides":2588,"reet":2589,"oes":2590,"set":2591,"Ġforce":2592,"Ġsail":2593,"Ġperfect":2594,"bl":2595,"ois":2596,"Ġport":2597,"Ġpale":2598,"Ġbear":2599,"Ġforget":2600,"Ġnotice":2601,"umble":2602,"Ġgold":2603,"Ġclosed":2604,"Ġgentlemen":2605,"Ġexpected":2606,"Ġrunning":2607,"Ġarrived":2608,"Ġheavy":2609,"bered":2610,"cent":2611,"Ġknows":2612,"Ġobli":2613,"Ġmarried":2614,"Ġwalk":2615,"Ġpaper":2616,"ges":2617,"ames":2618,"Ġattack":2619,"Ġgiving":2620,"Ġespecially":2621,"Ġeffort":2622,"Ġsociety":2623,"olkÃ³nski":2624,"after":2625,"Ġwa":2626,"Ġmid":2627,"Ġgri":2628,"ĠAfter":2629,"exp":2630,"Ġhonor":2631,"Ġfigure":2632,"_.":2633,"rough":2634,"only":2635,"othes":2636,"cely":2637,"Ġdeal":2638,"pr":2639,"Ġain":2640,"Ġsingle":2641,"arily":2642,"Ġdidn":2643,"range":2644,"Ġservice":2645,"An":2646,"action":2647,"bet":2648,"Ġpay":2649,"Ġlater":2650,"vere":2651,"ustration":2652,"Ġfurther":2653,"Ġfloor":2654,"!âĢĶ":2655,"face":2656,"Ġast":2657,"Ġmount":2658,"ander":2659,"about":2660,"Ġbring":2661,"Ġfirm":2662,"Ġnatural":2663,"Ġdestro":2664,"ape":2665,"ear":2666,"reas":2667,"icked":2668,"Ġgener":2669,"vered":2670,"ĠBiddy":2671,"arden":2672,"ĠChar":2673,"Ġstreet":2674,"Ġdropped":2675,"Ġspirit":2676,"resent":2677,"Ġhig":2678,"Ġconn":2679,"ĠWell":2680,"Ġeveryone":2681,"Ġconsidered":2682,"III":2683,"Ill":2684,"Ġbound":2685,"Ġcand":2686,"Ġhill":2687,"arm":2688,"Ġpa":2689,"ĠGer":2690,"Ġsmiled":2691,"Ġloved":2692,"Ġbroken":2693,"Ġholding":2694,"Ġduty":2695,"ker":2696,"Ġsuccess":2697,"emed":2698,"Ġneither":2699,"ieur":2700,"ĠEvery":2701,"Ġchance":2702,"?âĢĻ":2703,"Ġfro":2704,"Ġdeck":2705,"new":2706,"Ġeverybody":2707,"Ã©l":2708,"ext":2709,"Ġwarm":2710,"oly":2711,"Ġthin":2712,"together":2713,"Ġagree":2714,"formed":2715,"Ġsurprise":2716,"Ġadjut":2717,"Illustration":2718,"lling":2719,"Ġsend":2720,"Ġcomes":2721,"Ġdesire":2722,"ĠKing":2723,"Ġchanged":2724,"equod":2725,"Wh":2726,"eper":2727,"ipe":2728,"Ġwit":2729,"Ġbri":2730,"Ġsepar":2731,"cket":2732,"ĠCollins":2733,"Ġsmiling":2734,"Ġremarked":2735,"Ġtalked":2736,"Ġwrong":2737,"Ġpleasant":2738,"ĠAnat":2739,"looking":2740,"Ġappearance":2741,"Ġimportant":2742,"!âĢĻ":2743,"say":2744,"Ġmod":2745,"irty":2746,"chief":2747,"Ġfair":2748,"Ġprodu":2749,"Ġhandsome":2750,"Ġeasy":2751,"Ġwhisp":2752,"ĠAnatole":2753,"rit":2754,"Ġsake":2755,"âĢĶâĢľ":2756,"Ġshook":2757,"elle":2758,"Ġnearly":2759,"olunt":2760,"ĠLady":2761,"Ġmoving":2762,"Ġinterrupt":2763,"ydia":2764,"Ġpresence":2765,"RostÃ³v":2766,"iat":2767,"ades":2768,"Ġexact":2769,"ushing":2770,"ourney":2771,"Ġhunt":2772,"Ġguard":2773,"Ġparticular":2774,"uss":2775,"Ġlower":2776,"ury":2777,"Ġexcept":2778,"ĠStarbuck":2779,"Ġaccord":2780,"Ġvoices":2781,"Ġplease":2782,"Ġhuss":2783,"Ġinquir":2784,"ĠEnglish":2785,"ajest":2786,"Ġfight":2787,"ember":2788,"osing":2789,"Ġshad":2790,"Ġscen":2791,"Ġdescri":2792,"Ġplaced":2793,"Ġvarious":2794,"iver":2795,"pit":2796,"spe":2797,"tm":2798,"inite":2799,"enced":2800,"Ġcent":2801,"Ġeager":2802,"vel":2803,"ented":2804,"add":2805,"Ġrid":2806,"Ġval":2807,"umed":2808,"ĠDon":2809,"upon":2810,"culiar":2811,"Ġdifficult":2812,"Ġcaught":2813,"Ġtop":2814,"Ġeight":2815,"ĠWickham":2816,"agr":2817,"Ġknowing":2818,"Ġheads":2819,"onsieur":2820,"Ġresult":2821,"Ġbeautiful":2822,"Ġbeginning":2823,"lu":2824,"ping":2825,"Ġlying":2826,"Ġstarted":2827,"Ġshut":2828,"ested":2829,"ĠLord":2830,"Ġmarriage":2831,"Ġmeaning":2832,"Ġbroad":2833,"Chapter":2834,"just":2835,"know":2836,"Ġmark":2837,"Ġmiddle":2838,"arr":2839,"Ġneigh":2840,"Ġprov":2841,"without":2842,"Ġconscious":2843,"Ġobserved":2844,"Ġsharp":2845,"pan":2846,"rist":2847,"sat":2848,"Ġaunt":2849,"Ġdie":2850,"Ġgate":2851,"Ġpassing":2852,"Ġdirection":2853,"Ġriver":2854,"Ã¨ne":2855,"ossack":2856,"occ":2857,"Ġloud":2858,"Ġbelong":2859,"chook":2860,"Ġneck":2861,"Ġleaving":2862,"Ġlived":2863,"osity":2864,"Ġafterwards":2865,"Ġdeser":2866,"Ġgallop":2867,"father":2868,"great":2869,"than":2870,"uture":2871,"Ġthrew":2872,"Ġexam":2873,"Ġdraw":2874,"Ġdeterm":2875,"umblechook":2876,"Ã©lÃ¨ne":2877,"count":2878,"hor":2879,"oved":2880,"round":2881,"rel":2882,"ouri":2883,"Ġpict":2884,"ĠAlex":2885,"ĠHere":2886,"Ġpossib":2887,"Ġchurch":2888,"Ġexpressed":2889,"Ġcircumstances":2890,"something":2891,"Be":2892,"His":2893,"af":2894,"ghed":2895,"ike":2896,"tle":2897,"Ġsorry":2898,"oned":2899,"Ġpor":2900,"Ġearly":2901,"ĠPÃ¡v":2902,"Ġdoctor":2903,"Ġvict":2904,"agn":2905,"nothing":2906,"Ġevents":2907,"Ġcapt":2908,"hil":2909,"kes":2910,"Ġforth":2911,"Ġann":2912,"Ġdism":2913,"tained":2914,"Ġevent":2915,"Ġangry":2916,"appeared":2917,"inced":2918,"Ġmain":2919,"Ġfat":2920,"Ġweek":2921,"Ġdecided":2922,"dra":2923,"ned":2924,"sing":2925,"Ġmed":2926,"Ġmass":2927,"Ġhot":2928,"Ġlatter":2929,"Ġreli":2930,"Ġexist":2931,"Ġviol":2932,"ĠWill":2933,"Ġprot":2934,"Ġwrite":2935,"jo":2936,"Ġavo":2937,"Ġsch":2938,"Ġcru":2939,"ĠPequod":2940,"Ġdeg":2941,"olute":2942,"ĠOr":2943,"dist":2944,"zy":2945,"Ġtrem":2946,"Ġwide":2947,"rep":2948,"Ġhung":2949,"ĠIs":2950,"ellow":2951,"arton":2952,"ortun":2953,"Ġlooks":2954,"Ġspot":2955,"Ġreflect":2956,"Ġterms":2957,"Ġexclaimed":2958,"Ġsky":2959,"Ġforgot":2960,"Ġsettled":2961,"ience":2962,"rest":2963,"Ġcas":2964,"Ġdied":2965,"ĠPar":2966,"Ġdemand":2967,"Ġspent":2968,"Ġenjoy":2969,"ending":2970,"Ġengaged":2971,"has":2972,"Ġmiss":2973,"Ġheaven":2974,"Ġinform":2975,"Ġhang":2976,"lying":2977,"ĠLydia":2978,"acqu":2979,"Ġfollowing":2980,"atiÃ³n":2981,"Ġcreature":2982,"agratiÃ³n":2983,"One":2984,"fer":2985,"much":2986,"Ġthee":2987,"ises":2988,"Ġdare":2989,"Ġnumber":2990,"Ġgarden":2991,"aining":2992,"ĠPross":2993,"usted":2994,"atherine":2995,"Ġshoulders":2996,"rank":2997,"ivid":2998,"Ġwrote":2999,"Ġfrightened":3000,"certain":3001,"spect":3002,"Ġtall":3003,"ision":3004,"ashed":3005,"athe":3006,"ĠSome":3007,"ĠFrom":3008,"Ġknowledge":3009,"acy":3010,"....âĢĿ":3011,"Ġinstead":3012,"Ġaffairs":3013,"Ġstranger":3014,"Ġremembered":3015,"ĠUn":3016,"ourage":3017,"Ġgloom":3018,"_,":3019,"came":3020,"cip":3021,"field":3022,"min":3023,"ĠYes":3024,"Ġpublic":3025,"ift":3026,"umn":3027,"Ġjourney":3028,"udden":3029,"Ġwritten":3030,"ĠXV":3031,"iety":3032,"Ġcontrary":3033,"Al":3034,"turn":3035,"Ġ2":3036,"Ġfuture":3037,"Ġlim":3038,"Ġthy":3039,"hens":3040,"Ġshoulder":3041,"Ġparty":3042,"ivity":3043,"Ġretreat":3044,"conf":3045,"Ġcloud":3046,"Ġtender":3047,"ĠRussia":3048,"Ġburst":3049,"Ġbreath":3050,"car":3051,"eor":3052,"Ġdim":3053,"semb":3054,"Ġeat":3055,"road":3056,"Ġstern":3057,"rif":3058,"Ġkilled":3059,"Ġreport":3060,"expected":3061,"Ġpleased":3062,"Ġstreets":3063,"fortun":3064,"Ġmiles":3065,"Ġsolemn":3066,"ĠManette":3067,"ĠGerman":3068,"Ġwhispered":3069,"Ġwis":3070,"Ġbent":3071,"ony":3072,"Ġden":3073,"Ġasleep":3074,"izing":3075,"Ġcheer":3076,"ocket":3077,"Ġtrans":3078,"Ġfingers":3079,"cluded":3080,",--":3081,"such":3082,"Ġaim":3083,"erry":3084,"Ġbra":3085,"Ġcast":3086,"Ġcab":3087,"Ġcrew":3088,"Ġformed":3089,"Ġdeli":3090,"ouses":3091,"mend":3092,"Ġthank":3093,"Ġsmo":3094,"Ġminute":3095,"Ġordered":3096,"Ġdevil":3097,"cause":3098,"uous":3099,"Ġage":3100,"Ġsing":3101,"Ġrushed":3102,"ĠCossack":3103,"arnay":3104,"Ġsurprised":3105,"Who":3106,"eav":3107,"gan":3108,"gra":3109,"lay":3110,"Ġsal":3111,"Ġfun":3112,"Ġdressed":3113,"amed":3114,"Ġconce":3115,"olly":3116,"Ġspoken":3117,"Ġadjutant":3118,"Good":3119,"ric":3120,"two":3121,"Ġcre":3122,"ĠPumblechook":3123,"think":3124,"Ġvan":3125,"ounds":3126,"unic":3127,"Ġunable":3128,"ĠGu":3129,"Ġgreater":3130,"Ġglance":3131,"Ġquestions":3132,"Ġfinished":3133,"Ġkissed":3134,"Ġstudy":3135,"Your":3136,"Ġfish":3137,"Ġcart":3138,"Ġpity":3139,"Ġlie":3140,"Ġaband":3141,"Ã¡ty":3142,"Ġspite":3143,"Ġproceed":3144,"Ġgrand":3145,"Ġintell":3146,"ucket":3147,"ails":3148,"Ġprobably":3149,"Miss":3150,"Ġsnow":3151,"Ġbow":3152,"Ġmaid":3153,"oman":3154,"ĠBolkÃ³nski":3155,"Ġrising":3156,"Ġnose":3157,"Ġunif":3158,"Ġgovern":3159,"arest":3160,"ords":3161,"Ġbreakfast":3162,"Ġoccurred":3163,"Ġscarcely":3164,"Come":3165,"aled":3166,"emois":3167,"Ġworks":3168,"ĠGeor":3169,"Ġenter":3170,"Ã©n":3171,"Ġbeauty":3172,"Ġoccupied":3173,"emoiselle":3174,"good":3175,"Ġfle":3176,"Ġfool":3177,"cks":3178,"Ġdepend":3179,"antage":3180,"using":3181,"Ġwhatever":3182,"cial":3183,"Ġdrawn":3184,"Ġaccept":3185,"Ġfamil":3186,"Ġreading":3187,"Ġletters":3188,"board":3189,"Ġeasily":3190,"Ġlaughing":3191,"bre":3192,"back":3193,"Ġfilled":3194,"Ġhealth":3195,"Ġpit":3196,"apart":3197,"Ġagre":3198,"ability":3199,"ĠRostÃ³vs":3200,"Ġlaughed":3201,"Ġtouched":3202,"Ġlaws":3203,"Ġpriv":3204,"edom":3205,"Ġkill":3206,"ĠCarton":3207,"Ġbless":3208,"teen":3209,"Ġclothes":3210,"Ġmarry":3211,"present":3212,"Here":3213,"Princess":3214,"iant":3215,"ences":3216,"lend":3217,"Ġprin":3218,"seen":3219,"Ġstop":3220,"ries":3221,"Ġseized":3222,"never":3223,"Ġbox":3224,"conscious":3225,"Ġgreen":3226,"Ġfancy":3227,"Ġemplo":3228,"ortunity":3229,"00":3230,"Her":3231,"cise":3232,"Ġsim":3233,"Ġbelow":3234,"imate":3235,"these":3236,"Ġuncle":3237,"being":3238,"ishment":3239,"Ġpassage":3240,"ifferent":3241,"Ġapart":3242,"Ġcondition":3243,"Ġscene":3244,"Ã¡tych":3245,"might":3246,"Ġpath":3247,"Ġpipe":3248,"Ġeld":3249,"ĠHÃ©lÃ¨ne":3250,"ĠBy":3251,"antic":3252,"Ġexec":3253,"Ġunknown":3254,"Ġpeculiar":3255,"lpÃ¡tych":3256,"Ġtrave":3257,"Ġwhisper":3258,"Ġsweet":3259,"Ġacquaint":3260,"Ġdreadful":3261,"Ġcopy":3262,"uddenly":3263,"ech":3264,"kind":3265,"mÃŃt":3266,"ope":3267,"Ġsorrow":3268,"Ġwouldn":3269,"ruct":3270,"Ġgrow":3271,"Ġtrouble":3272,"feel":3273,"Ġboats":3274,"Ġprisoners":3275,"Ġparticularly":3276,"ding":3277,"pers":3278,"iter":3279,"Ġmars":3280,"Ġmotion":3281,"Ġpaid":3282,"Ġbeat":3283,"still":3284,"Ġsave":3285,"through":3286,"ists":3287,"ume":3288,"Ġcompl":3289,"Ġgrave":3290,"Ġconvict":3291,"Ġspirits":3292,"Ġmonths":3293,"Where":3294,"ald":3295,"cr":3296,"ikh":3297,"non":3298,"pass":3299,"rid":3300,"Ġauth":3301,"Ġsli":3302,"Ġfurn":3303,"Ġcoun":3304,"ories":3305,"esides":3306,"Ġpen":3307,"Ġlan":3308,"Ġearn":3309,"Ġasking":3310,"Ġstone":3311,"Ġseven":3312,"ĠPocket":3313,"Ġsusp":3314,"aked":3315,"osite":3316,"Ġsomeone":3317,"Ġbridge":3318,"Ġgrown":3319,"Ġserious":3320,"Ġclean":3321,"Ġlisten":3322,"Ġinflu":3323,"Ã«v":3324,"place":3325,"Ġentirely":3326,"ikhÃ¡y":3327,"ele":3328,"iosity":3329,"mind":3330,"Ġbare":3331,"Ġfrown":3332,"ley":3333,"Ġbell":3334,"stairs":3335,"Ġthick":3336,"Ġreck":3337,"ĠBagratiÃ³n":3338,"Ġnoble":3339,"Ġhappen":3340,"Ġtea":3341,"Ġfollow":3342,"Ġdarkness":3343,"play":3344,"ĠYour":3345,"Ġlearned":3346,"ĠPÃ¡vlovna":3347,"erning":3348,"itz":3349,"Ġpun":3350,"ics":3351,"Ġgro":3352,"Ġrev":3353,"Ġnote":3354,"Ġstaff":3355,"terday":3356,"Ġdelic":3357,"ĠCatherine":3358,"Ġworse":3359,"Ġspread":3360,"Ġlikely":3361,"Ġcovered":3362,"Ġgreatest":3363,"Ġrooms":3364,"Ġputting":3365,"Ġsupper":3366,"Ġdrove":3367,"ĠYet":3368,"Don":3369,"bel":3370,"ues":3371,"reme":3372,"enne":3373,"ĠSperm":3374,"Ġblind":3375,"ikhÃ¡ylovna":3376,"zz":3377,"Ġver":3378,"iner":3379,"Ġcat":3380,"Ġciv":3381,"seemed":3382,"Ġstir":3383,"Ġneg":3384,"Ġvain":3385,"law":3386,"Ġunf":3387,"Ġattempt":3388,"Ġbroke":3389,"ashion":3390,"Ġimagine":3391,"ĠMadame":3392,"ourienne":3393,"From":3394,"don":3395,"zen":3396,"itated":3397,"onapart":3398,"Ġpressed":3399,"Ġlab":3400,"Ġyouth":3401,"Ġsugg":3402,"ĠDarnay":3403,"Ã¡gin":3404,"Ġbreast":3405,"Ġmeeting":3406,"Ġmentioned":3407,"ointed":3408,"must":3409,"Ġsick":3410,"isher":3411,"Ġhearing":3412,"anch":3413,"Ġpal":3414,"Ġnur":3415,"Ġboard":3416,"soci":3417,"Ġwalking":3418,"Ġcompanion":3419,"Ġinterrupted":3420,"away":3421,"iod":3422,"made":3423,"tal":3424,"onse":3425,"Ġcity":3426,"another":3427,"owers":3428,"Ġnearer":3429,"opch":3430,"rows":3431,"Ġempt":3432,"Ġpresented":3433,"Ġcurious":3434,"Ġassist":3435,"Ġconduct":3436,"eyes":3437,"ĠChrist":3438,"cour":3439,"fire":3440,"hum":3441,"erv":3442,"Ġgen":3443,"ĠTell":3444,"amma":3445,"antry":3446,"ousin":3447,"ostopch":3448,"Ġcho":3449,"Ġendeav":3450,"ronic":3451,"ĠRussians":3452,"Ġstrugg":3453,"Ġquietly":3454,"Ġsymp":3455,"Ġexactly":3456,"Let":3457,"Nicholas":3458,"fa":3459,"oh":3460,"Ġtreat":3461,"itable":3462,"Ġpac":3463,"Ġham":3464,"uted":3465,"ĠBr":3466,"Ġvirt":3467,"eless":3468,"arther":3469,"Ġoutside":3470,"Ġanybody":3471,"Ġcoff":3472,"Ġboots":3473,"hys":3474,"Ġclearly":3475,"Ġsounds":3476,"Ġresolved":3477,"Ġrapidly":3478,"Ġaston":3479,"ius":3480,"ses":3481,"erk":3482,"Ġdust":3483,"Ġrequ":3484,"Ġaside":3485,"adv":3486,"Ġsafe":3487,"ĠMonsieur":3488,"cky":3489,"antucket":3490,"Ġthrown":3491,"Ġperiod":3492,"Ġpointed":3493,"Ġlistening":3494,"Ġgirls":3495,"Ġpapers":3496,"ĠEngland":3497,"ajesty":3498,"Ġauthor":3499,"ostopchÃŃn":3500,"friend":3501,"mission":3502,"Ġta":3503,"inc":3504,"ingu":3505,"Ġmort":3506,"Ġfal":3507,"Ġhid":3508,"Ġhint":3509,"Ġhall":3510,"oted":3511,"Ġears":3512,"rily":3513,"Ġseat":3514,"Ġsuper":3515,"top":3516,"neur":3517,"Ġbegun":3518,"Ãºsh":3519,"Ġloss":3520,"Ġbelieved":3521,"ĠOnly":3522,"chant":3523,"Ġtouch":3524,"ĠAlexander":3525,"onaparte":3526,"cast":3527,"cies":3528,"rodu":3529,"ĠMar":3530,"Ġliked":3531,"Ġpocket":3532,"Ġattent":3533,"attered":3534,"Ġhorror":3535,"ĠXI":3536,"Ġconcern":3537,"runcher":3538,"Ġfavour":3539,"Ġperfectly":3540,"iathan":3541,"By":3542,"French":3543,"line":3544,"rect":3545,"Ġceas":3546,"ature":3547,"enth":3548,"ills":3549,"ests":3550,"aker":3551,"Ġcarry":3552,"coat":3553,"Ġaffair":3554,"Ġchest":3555,"Ġawait":3556,"Ġincreas":3557,"Ġmiserable":3558,"ees":3559,"first":3560,"moment":3561,"Ġtail":3562,"Ġdrink":3563,"ays":3564,"olog":3565,"ips":3566,"ache":3567,"Ġteeth":3568,"gging":3569,"Ġfreedom":3570,"Ġbesides":3571,"Ġjoined":3572,"Ġconvinced":3573,"Ġfinger":3574,"Ġpeasants":3575,"Ġwitness":3576,"!...":3577,"enance":3578,"asons":3579,"Ġmel":3580,"que":3581,"Ġshown":3582,"ĠWho":3583,"ĠFl":3584,"ĠJust":3585,"Ġglancing":3586,"lessly":3587,"opsle":3588,"Ġadmir":3589,"Ġutter":3590,"Ġsimple":3591,"ĠLucie":3592,"Un":3593,"sub":3594,"Ġbird":3595,"ism":3596,"step":3597,"ĠPer":3598,"those":3599,"ĠCruncher":3600,"Ġspring":3601,"Ġpride":3602,"Ġvoy":3603,"Ġpointing":3604,"noon":3605,"Ġquarter":3606,"Ġprepared":3607,"satisf":3608,"mÃŃtri":3609,"aign":3610,"uation":3611,"heard":3612,"Ġmast":3613,"ĠInd":3614,"Ġones":3615,"Ġallow":3616,"ilar":3617,"Ġconsequ":3618,"ĠNor":3619,"Ġjaw":3620,"ford":3621,"onsense":3622,"conc":3623,"racted":3624,"ceiving":3625,"Ġopportunity":3626,"Ġexcellency":3627,"Ġpaused":3628,"Ġtremb":3629,"**":3630,"awn":3631,"went":3632,"wind":3633,"Ġign":3634,"Ġwhe":3635,"Ġwond":3636,"ert":3637,"Ġbig":3638,"ital":3639,"arse":3640,"Ġpack":3641,"ĠBal":3642,"Ġrich":3643,"igneur":3644,"Ã¡ry":3645,"Ġdisco":3646,"Ġimpro":3647,"Ġcommunic":3648,"evna":3649,"Ġhonour":3650,"Ġopposite":3651,"Ġexplain":3652,"Ġbeneath":3653,"ĠMademoiselle":3654,"Ã©nsk":3655,"case":3656,"Ġbread":3657,"Ġfla":3658,"Ġdi":3659,"ste":3660,"ading":3661,"Ġallowed":3662,"Ġdog":3663,"Ġvent":3664,"ĠCom":3665,"ague":3666,"Ġgoes":3667,"Ġmatters":3668,"Ġfallen":3669,"Ġproperty":3670,"Ġschool":3671,"ĠGeorge":3672,".)":3673,"del":3674,"phe":3675,"take":3676,"vation":3677,"Ġwore":3678,"Ġmakes":3679,"gel":3680,"emper":3681,"Ġvast":3682,"Ġnodd":3683,"ruction":3684,"Ġtwice":3685,"Ġpersu":3686,"ounced":3687,"Ġextra":3688,"Ġlifted":3689,"Ġanxious":3690,"ĠParis":3691,"Ġuniform":3692,"Ã¡rya":3693,"eed":3694,"found":3695,"same":3696,"tic":3697,"wr":3698,"Ġori":3699,"isto":3700,"Ġpract":3701,"Ġhabit":3702,"Ġbeha":3703,"Ġelect":3704,"ainted":3705,"thy":3706,"ĠSund":3707,"Ġshot":3708,"ĠLong":3709,"Ġgroup":3710,"ordinary":3711,"Ġproud":3712,"Ġexcited":3713,"ashÃ«v":3714,"work":3715,"Ġcrossed":3716,"Ġabsolute":3717,"ĠAustri":3718,"iable":3719,"mol":3720,"mber":3721,"atic":3722,"iments":3723,"Ġsav":3724,"ĠBar":3725,"olonel":3726,"Ġdisapp":3727,"Ġgrat":3728,"Ġplaces":3729,"Ġsupposed":3730,"Ġcuriosity":3731,"Ġextreme":3732,"looked":3733,"understand":3734,"Ġarrival":3735,"consid":3736,"Ġcaused":3737,"EN":3738,"Ġspect":3739,"Ġfarther":3740,"asure":3741,"Ġinno":3742,"Ġpet":3743,"Ġlod":3744,"sec":3745,"erer":3746,"ĠTur":3747,"Ġrub":3748,"eping":3749,"oft":3750,"Ġpassion":3751,"Ã©ev":3752,"Ġappre":3753,"Ġconfess":3754,"Ġforehead":3755,"Ġcharge":3756,"Of":3757,"fs":3758,"itc":3759,"Ġmagn":3760,"Ġfr":3761,"Ġhero":3762,"arrow":3763,"quis":3764,"Ġalive":3765,"Ġkey":3766,"Ġmoments":3767,"Ġmoon":3768,"ĠĠĠĠĠĠĠĠĠĠĠĠĠĠĠĠĠĠĠĠĠĠĠĠĠĠĠĠĠĠĠĠ":3769,"Ġforgotten":3770,"onseigneur":3771,"rounded":3772,"tw":3773,"whale":3774,"inst":3775,"Ġband":3776,"Ġbab":3777,"Ġpushed":3778,"ĠMikhÃ¡ylovna":3779,"ĠWopsle":3780,"Ġque":3781,"ption":3782,"shire":3783,"Ġwriting":3784,"Ġinstantly":3785,"supp":3786,"Ġwindows":3787,"Ġshouting":3788,"Ġdespair":3789,"Ġgazed":3790,"Ġsuspic":3791,"Look":3792,"mit":3793,"mar":3794,"inÃ³":3795,"reason":3796,"hant":3797,"Ġfate":3798,"Ġcook":3799,"Ġstick":3800,"ĠAlpÃ¡tych":3801,"raph":3802,"Ġshri":3803,"Ġrain":3804,"ryver":3805,"odinÃ³":3806,"Ġtelling":3807,"upid":3808,"Ġpresently":3809,"Ġactivity":3810,"Ġwaited":3811,"Ġfrequ":3812,"Ġsignific":3813,"ĠWhite":3814,"Ġguns":3815,"Ġcandle":3816,"oluntarily":3817,"Ġdegree":3818,"?âĢĶ":3819,"gain":3820,"hest":3821,"Ġban":3822,"Ġdull":3823,"ashing":3824,"ĠBourienne":3825,"Ġexceed":3826,"uses":3827,"Ġuncom":3828,"Ġjump":3829,"Ġcannon":3830,"Ġgrowing":3831,"Ġrepro":3832,"aval":3833,"igned":3834,"Ġresp":3835,"Andrew":3836,"ĠStreet":3837,"Ġdistinct":3838,"Ġterror":3839,"Mrs":3840,"Ġrelations":3841,"Ġdepart":3842,"Ġpromise":3843,"Ġtrees":3844,"happy":3845,"Ġfifty":3846,"Ġaccording":3847,"Ġorigin":3848,"bor":3849,"cal":3850,"last":3851,"took":3852,"vious":3853,"Ġfond":3854,"Ġheight":3855,"Ġlines":3856,"iles":3857,"ĠNantucket":3858,"igs":3859,"ĠRostopchÃŃn":3860,"Ġattend":3861,"Ġadvance":3862,"Ġforest":3863,"natural":3864,"Ġsimply":3865,"Ġburning":3866,"Ġharpoone":3867,"Ġneighbour":3868,"Ġdetermined":3869,"Ġfamiliar":3870,"Very":3871,"iven":3872,"ny":3873,"Ġwretched":3874,"hal":3875,"Ġcousin":3876,"Ġincl":3877,"Ġrejo":3878,"key":3879,"ĠFrance":3880,"necess":3881,"fulness":3882,"Ġrepresent":3883,"Ġdescend":3884,"Ġindic":3885,"ĠThough":3886,"Ġwhaling":3887,"Ġhistorians":3888,"Ġhigher":3889,"Ġavoid":3890,"mÃŃtrievna":3891,"itchen":3892,"SÃ³nya":3893,"cceed":3894,"gentle":3895,"host":3896,"yer":3897,"Ġid":3898,"Ġpiece":3899,"icing":3900,"âĢĶ_":3901,"Ġknock":3902,"Ġweather":3903,"aped":3904,"rud":3905,"Ġblow":3906,"Ġspeech":3907,"cient":3908,"ailed":3909,"Ġadvantage":3910,"Ġfinally":3911,"Ġsuffer":3912,"going":3913,"ibly":3914,"Ġmilitary":3915,"Ġyesterday":3916,"Ġsatisfied":3917,"Ġembra":3918,"Ġleaning":3919,"Ġinfluence":3920,"ndered":3921,"Ġmood":3922,"Ġfood":3923,"Ġcustom":3924,"Ġparent":3925,"cean":3926,"irm":3927,"aming":3928,"ĠSh":3929,"Ġweeks":3930,"Ġunexpected":3931,"ĠGard":3932,"because":3933,"agement":3934,"Ġbold":3935,"Ġflank":3936,"Ġaddressed":3937,"Ġconfidence":3938,"Ġapproached":3939,"ĠCountess":3940,"Ġconcerning":3941,"Ġfortune":3942,"Ġearnest":3943,"molÃ©nsk":3944,"camp":3945,"ior":3946,"jun":3947,"Ġsperm":3948,"nding":3949,"hamed":3950,"Ġnice":3951,"always":3952,"urally":3953,"Ġstro":3954,"Ġseated":3955,"Ġalthough":3956,"lies":3957,"Ġshaking":3958,"Ġimpati":3959,"Ġwatching":3960,"Ġaddress":3961,"Ġawful":3962,"perior":3963,"Ġdirectly":3964,"everything":3965,"Ġmuttered":3966,"cil":3967,"sy":3968,"resh":3969,"Ġmess":3970,"Ġfit":3971,"Ġce":3972,"Ġhouses":3973,"Ġthreat":3974,"ify":3975,"ĠMo":3976,"Ġfaith":3977,"Ġtimid":3978,"Ġsmell":3979,"izzy":3980,"Ġharm":3981,"possible":3982,"Ġkeeping":3983,"chair":3984,"Ġdrive":3985,"Ġpromised":3986,"Ġsummer":3987,"Ġcampaign":3988,"Ġescape":3989,"Ġexperienced":3990,"kerchief":3991,"Ġempty":3992,"aul":3993,"life":3994,"reen":3995,"itiz":3996,"enge":3997,"Ġdom":3998,"Ġinn":3999,"Ġves":4000,"Ġcomr":4001,"ĠNew":4002,"Ġoffered":4003,"arks":4004,"Ġspecial":4005,"athy":4006,"Ġwatched":4007,"Ġsilently":4008,"Ġdecla":4009,"Ġcontinually":4010,"Ġhurry":4011,"Ġsuffering":4012,"Ġcolonel":4013,"ĠQueen":4014,"Ġmurder":4015,"ternal":4016,"Ġprofess":4017,"Ġinformation":4018,"Ġceased":4019,"uel":4020,"held":4021,"Ġfet":4022,"Ġdressing":4023,"Ġpati":4024,"Ġlar":4025,"icient":4026,"Ġthro":4027,"rov":4028,"Ġsofa":4029,"Ġconcl":4030,"oused":4031,"ĠCome":4032,"Ġfee":4033,"Ġoffer":4034,"ignity":4035,"Ġtrust":4036,"Ġtroub":4037,"ĠFrenchman":4038,"Ãºkhov":4039,"habit":4040,"Ġtouching":4041,"Ġgenerally":4042,"Ġfalse":4043,"ĠFlask":4044,"Just":4045,"bly":4046,"cor":4047,"iest":4048,"put":4049,"having":4050,"Ġbank":4051,"Ġmud":4052,"Ġfold":4053,"Ġhide":4054,"Ġdam":4055,"Ġdying":4056,"lly":4057,"Ġreve":4058,"vering":4059,"ĠOld":4060,"Ġdistribut":4061,"Ġunderstanding":4062,"ĠBorodinÃ³":4063,"Ġmusk":4064,"Ġmusic":4065,"ĠCharles":4066,"KutÃºzov":4067,"zÃºkhov":4068,"ĠZ":4069,"Ġpause":4070,"icha":4071,"velo":4072,"Ġstation":4073,"herlock":4074,"ĠMÃ¡rya":4075,"amb":4076,"Ġuneas":4077,"ighed":4078,"ieces":4079,"Ġsplend":4080,"Ġremoved":4081,"Ġblame":4082,"ĠKar":4083,"Ġintrodu":4084,"ĠStryver":4085,"Ġinterval":4086,"Ġrecoll":4087,"Nothing":4088,"Ġhopes":4089,"Ġbottom":4090,"Ġcruel":4091,"Ġacquaintance":4092,"Ġignor":4093,"clo":4094,"Ġinev":4095,"Ġgame":4096,"ĠTH":4097,"quar":4098,"pper":4099,"oundation":4100,"ĠWhere":4101,"Ġlives":4102,"Ġsomewhere":4103,"Ġspl":4104,"began":4105,"Ġremind":4106,"Ġgrass":4107,"Ġperp":4108,"Ġcontempt":4109,"attery":4110,"Ġcarp":4111,"mense":4112,"Ġconsidering":4113,"Ġcarefully":4114,"Ġsurrounded":4115,"Ġdifficulty":4116,"question":4117,"Ġobliged":4118,"Ġbrill":4119,"ĠSunday":4120,"Ġvessel":4121,"Napoleon":4122,"lot":4123,"rÃ©":4124,"saw":4125,"Ġtemp":4126,"Ġwid":4127,"Ġbor":4128,"Ġluck":4129,"idently":4130,"Ġyard":4131,"Ġashamed":4132,"Ġforced":4133,"ĠMajesty":4134,"ams":4135,"three":4136,"Ġvic":4137,"Ġarran":4138,"Ġways":4139,"Ġdistur":4140,"Ġvisible":4141,"Ġcircle":4142,"Ġexplan":4143,"pleasant":4144,"Ġpulled":4145,"Ġhussars":4146,".âĢĶ":4147,"Every":4148,"called":4149,"rat":4150,"heart":4151,"Ġbatt":4152,"Ġhun":4153,"Ġdry":4154,"Ġreceive":4155,"iring":4156,"ĠThese":4157,"Ġliber":4158,"ĠCan":4159,"Ġotherwise":4160,"acle":4161,"ollow":4162,"Ġintention":4163,"lease":4164,"anything":4165,"door":4166,"Ġabsence":4167,"offic":4168,"Ġregarded":4169,"Ġdestroyed":4170,"ancholy":4171,"Having":4172,"Joe":4173,"rain":4174,"Ġice":4175,"Ġtong":4176,"Ġtast":4177,"Ġbod":4178,"Ġphys":4179,"Ġlit":4180,"Ġyield":4181,"Ġrul":4182,"Ġdoors":4183,"Ġmanners":4184,"ĠDmÃŃtrievna":4185,"Ġrolled":4186,"Ġarg":4187,"Ġjack":4188,"ĠOf":4189,"Ġourselves":4190,"Ġapparent":4191,"Ġdistingu":4192,"Ġswift":4193,"hard":4194,"Ġprevious":4195,"ÃŃtski":4196,"Ġcompletely":4197,"ividual":4198,"Ġvoyage":4199,"Ġbaby":4200,"._":4201,"circ":4202,"dom":4203,"master":4204,"rand":4205,"Ġwet":4206,"resp":4207,"Ġfashion":4208,"Ġnine":4209,"Ġassoci":4210,"rose":4211,"herself":4212,"Ġmyst":4213,"anted":4214,"Ġcomb":4215,"ĠFoundation":4216,"ĠLook":4217,"ĠJerry":4218,"order":4219,"Ġscream":4220,"Ġcontin":4221,"Ġstepped":4222,"Ġmisery":4223,"Ġjoin":4224,"Ġtriump":4225,"Ġpolit":4226,"Ġequal":4227,"Ġbuild":4228,"Ġpursued":4229,"Ġagreeable":4230,"Ġgalloped":4231,"Ġprivate":4232,"Ġreckon":4233,"DenÃŃsov":4234,"ky":4235,"kov":4236,"table":4237,"woman":4238,"Ġsla":4239,"Ġmild":4240,"ont":4241,"Ġdance":4242,"Ġlamp":4243,"adually":4244,"urope":4245,"Ġforces":4246,"Ġkitchen":4247,"Ġhanded":4248,"Ġimm":4249,"Ġafternoon":4250,"rang":4251,"Ġgras":4252,"Ġentreat":4253,"Ġregret":4254,"Ġconfused":4255,"Ġships":4256,"Ġopening":4257,"Ġevident":4258,"Ġpersonal":4259,"ĠBecky":4260,"Ġbenef":4261,"Ġbitter":4262,"ergy":4263,"ustomed":4264,"Ġexperience":4265,"Ġmemory":4266,"Ġhanging":4267,"Ġcabin":4268,"may":4269,"tell":4270,"rees":4271,"Ġcoup":4272,"ancy":4273,"Ġthirty":4274,"ĠSmolÃ©nsk":4275,"Ġshock":4276,"Ġrum":4277,"itty":4278,"ospit":4279,"Ġamid":4280,"Ġspout":4281,"ĠGo":4282,"Ġbecom":4283,"Ġcountenance":4284,"cience":4285,"Ġevil":4286,"Ġdiscovered":4287,"Ġdiscuss":4288,"Ġdeeply":4289,"Ġtranqu":4290,"Ġexcellent":4291,"Ġflew":4292,"Russi":4293,"bow":4294,"fac":4295,"got":4296,"ien":4297,"mis":4298,"Ġwound":4299,"Ġfisher":4300,"Ġtoss":4301,"aning":4302,"Ġph":4303,"Ġgest":4304,"Ġsus":4305,"Ġsucceed":4306,"Ġshed":4307,"Ġnobody":4308,"Ġarrange":4309,"Ġenorm":4310,"inking":4311,"Ġfiring":4312,"Ġimpression":4313,"Ġspeed":4314,"Ġadvanced":4315,"ounce":4316,"Ġfalling":4317,"Ġdirected":4318,"rumm":4319,"Ġshadow":4320,"Ġsimilar":4321,"avalry":4322,"ĠGardiner":4323,"God":4324,"cap":4325,"felt":4326,"iving":4327,"mother":4328,"Ġwinter":4329,"Ġoil":4330,"Ġbowed":4331,"Ġder":4332,"Ġinj":4333,"Ġga":4334,"urs":4335,"Ġstairs":4336,"Ġstupid":4337,"elve":4338,"redit":4339,"Ġnoise":4340,"Ġroof":4341,"agree":4342,"ĠGeneral":4343,"ept":4344,"Ġoffice":4345,"Ġwaters":4346,"young":4347,"Ġreturning":4348,"suff":4349,"Ġsisters":4350,"Ġneeded":4351,"Ġvisitor":4352,"Ġestab":4353,"Ġimportance":4354,"Ġmurd":4355,"Ġslightly":4356,"bourn":4357,"ĠWilliam":4358,"Ġprincip":4359,"lotte":4360,"rummle":4361,"Go":4362,"fam":4363,"gment":4364,"lt":4365,"mor":4366,"pri":4367,"rors":4368,"zing":4369,"Ġaud":4370,"ites":4371,"Ġmill":4372,"Ġfully":4373,"Ġtow":4374,"Ġdrun":4375,"Ġpill":4376,"Ġlaughter":4377,"âĢľ_":4378,"Ġreach":4379,"Ġseas":4380,"things":4381,"ĠBesides":4382,"Ġshore":4383,"Ġknees":4384,"hank":4385,"Ġworn":4386,"ĠĠĠĠĠ":4387,"Ġparts":4388,"Ġperform":4389,"Ġclerk":4390,"Ġcloak":4391,"meric":4392,"Ġdrop":4393,"Ġplainly":4394,"Ġgrief":4395,"While":4396,"Ġproduced":4397,"Ġporch":4398,"athered":4399,"Have":4400,"bus":4401,"lm":4402,"ued":4403,"yard":4404,"Ġtemper":4405,"Ġsigh":4406,"Ġmot":4407,"onah":4408,"Ġcott":4409,"Ġdue":4410,"Ġnarrow":4411,"Ġforty":4412,"Ġstar":4413,"Ġris":4414,"Ġyours":4415,"aunt":4416,"Ġspare":4417,"Ġcalling":4418,"Ġconsiderable":4419,"ĠBezÃºkhov":4420,"Ġinteresting":4421,"hands":4422,"Ġcolumn":4423,"Ġangrily":4424,"Ġbooks":4425,"Ġsituation":4426,"ointment":4427,"Ġgazing":4428,"Ġbottle":4429,"Ġcases":4430,"ĠBalashÃ«v":4431,"Ġsplendid":4432,"Moscow":4433,"yet":4434,"Ġer":4435,"Ġwand":4436,"Ġwel":4437,"Ġsought":4438,"Ġfier":4439,"Ġcourage":4440,"Ġtomorrow":4441,"Ġhost":4442,"Ġhes":4443,"Ġpick":4444,"Ġease":4445,"Ġyellow":4446,"Ġur":4447,"Ġwhist":4448,"ĠTwo":4449,"ĠPol":4450,"Ġking":4451,"Ġlies":4452,"ĠColonel":4453,"Ġcouldn":4454,"Ġspace":4455,"Ġimmense":4456,"acity":4457,"Ġcompass":4458,"Ġthrow":4459,"command":4460,"serv":4461,"boat":4462,"Ġhoped":4463,"Ġhurriedly":4464,"panied":4465,"Ġwishes":4466,"Ġintellig":4467,"DÃ³lokhov":4468,"col":4469,"cond":4470,"fall":4471,"hon":4472,"tow":4473,"Ġic":4474,"Ġess":4475,"Ġbore":4476,"Ġbul":4477,"Ġfo":4478,"ental":4479,"Ġonto":4480,"Ġreasons":4481,"Ġsacri":4482,"theless":4483,"ours":4484,"ĠDe":4485,"Ġwhenever":4486,"Ġamaz":4487,"Ġprove":4488,"ometimes":4489,"Ġmighty":4490,"Ġguess":4491,"Ġhighly":4492,"Ġsuffered":4493,"Ġwooden":4494,"Ġwonderful":4495,"Ġsatisfaction":4496,"Ġ181":4497,"occup":4498,"Ġvictory":4499,"Ġelder":4500,"Ġnodded":4501,"Did":4502,"Qu":4503,"din":4504,"ral":4505,"taking":4506,"vÃ¡n":4507,"zh":4508,"iny":4509,"Ġfaint":4510,"Ġloose":4511,"Ġdeb":4512,"Ġring":4513,"rinking":4514,"Ġunless":4515,"Ġfail":4516,"ĠGood":4517,"Ġimper":4518,"Ġswim":4519,"Ġbusy":4520,"ground":4521,"Ġestate":4522,"Ġtorment":4523,"ajor":4524,"Ġrelief":4525,"Book":4526,"Huck":4527,"boy":4528,"cur":4529,"ium":4530,"ivers":4531,"matter":4532,"Ġocean":4533,"Ġbas":4534,"Ġmatch":4535,"enger":4536,"Ġcost":4537,"Ġtoday":4538,"ator":4539,"atson":4540,"Ġnonsense":4541,"Ġlose":4542,"child":4543,"people":4544,"Ġsuperior":4545,"Ġrust":4546,"Ġaltogether":4547,"ĠDick":4548,"Ġworked":4549,"Ġfault":4550,"ĠEv":4551,"Ġseek":4552,"ÃŃkh":4553,"taining":4554,"Ġgrate":4555,"Ġyounger":4556,"Ġaddressing":4557,"Ġrefer":4558,"Ġgenerals":4559,"fortune":4560,"Ġplaying":4561,"Ġservant":4562,"Ġexplained":4563,"Ġvex":4564,"continu":4565,"against":4566,"Ġhastily":4567,"ĠGuards":4568,"Ġcarts":4569,"Ġlangu":4570,"Ġcivil":4571,"ÃŃkhon":4572,"Are":4573,"kward":4574,"zed":4575,"Ġ3":4576,"Ġcards":4577,"Ġreceiving":4578,"Ġstat":4579,"Ġstair":4580,"Ġmyster":4581,"venge":4582,"urely":4583,"osom":4584,"ables":4585,"interest":4586,"Ġcarrying":4587,"Ġsubst":4588,"Ġcorp":4589,"Ġkindly":4590,"Ġactions":4591,"Ġindividual":4592,"Ġrelation":4593,"Ġapproaching":4594,"Ġheavily":4595,"Ġwalls":4596,"Ġsoftly":4597,"Ġconsciousness":4598,"Ġexistence":4599,"fortunate":4600,"Ġbrilliant":4601,"book":4602,"eal":4603,"Ġwo":4604,"Ġble":4605,"Ġpair":4606,"âĢĿâĢĶ":4607,"Ġdelay":4608,"empl":4609,"ational":4610,"Ġwear":4611,"Ġweight":4612,"ĠDrummle":4613,"ieve":4614,"irect":4615,"Ġdisappeared":4616,"Ġgray":4617,"Ġcompre":4618,"Ġregular":4619,"Ġhuge":4620,"Ġfinding":4621,"Ġadvice":4622,"Ġaware":4623,"grat":4624,"Ġplayed":4625,"ĠHowever":4626,"Only":4627,"mbers":4628,"Ġuttered":4629,"appear":4630,"Ã¡nski":4631,"Ġremarkable":4632,"Ġanimated":4633,"Ġjudge":4634,"Ġpossibly":4635,"turned":4636,"Ġgenius":4637,"Ġelectronic":4638,"Ġinnocent":4639,"Ġargum":4640,"Ġenormous":4641,"OO":4642,"OR":4643,"bout":4644,"done":4645,"mitted":4646,"sar":4647,"too":4648,"vi":4649,"wal":4650,"ref":4651,"rent":4652,"iture":4653,"Ġmal":4654,"Ġcavalry":4655,"orse":4656,"anim":4657,"Ġghost":4658,"rah":4659,"Ġleaves":4660,"perÃ¡nski":4661,"osop":4662,"ĠJonah":4663,"Ġshame":4664,"white":4665,"Ġdesper":4666,"commend":4667,"Ġofficial":4668,"point":4669,"box":4670,"Ġideas":4671,"Ġprevent":4672,"Ġpolice":4673,"Ġprofound":4674,"Ġpeasant":4675,"Ġcheerful":4676,"steps":4677,"igsen":4678,"Ġsacrif":4679,"Never":4680,"ipp":4681,"rust":4682,"whether":4683,"water":4684,"Ġtree":4685,"eding":4686,"isc":4687,"Ġgained":4688,"Ġrequest":4689,"Ġstout":4690,"keeper":4691,"ĠSir":4692,"Ġshoes":4693,"Ġconception":4694,"Ġvague":4695,"ĠDan":4696,"Ġworst":4697,"others":4698,"ĠEurope":4699,"ĠOF":4700,"Ġbringing":4701,"whole":4702,"Ġintent":4703,"Ġhappens":4704,"Ġmarch":4705,"Ġdistant":4706,"sured":4707,"Ġmonster":4708,"Ġinfantry":4709,"Ġassure":4710,"brought":4711,"Ġroads":4712,"Ġservants":4713,"Ġvisitors":4714,"Ġfortun":4715,"Ġstrike":4716,"ĠXXX":4717,"Ġleaned":4718,"ĠLucas":4719,"Ġsympathy":4720,"ohn":4721,"Ġincreased":4722,"engeance":4723,"Count":4724,"Will":4725,"either":4726,"give":4727,"gress":4728,"ially":4729,"rous":4730,"rate":4731,"wait":4732,"yal":4733,"Ġwishing":4734,"half":4735,"itement":4736,"Ġchat":4737,"ldom":4738,"ilÃŃ":4739,"ĠSp":4740,"Ġshop":4741,"Ġconcluded":4742,"olved":4743,"Ġalarm":4744,"ouring":4745,"udge":4746,"ildad":4747,"lessness":4748,"sold":4749,"ethod":4750,"eviathan":4751,"ample":4752,"Ġranks":4753,"Ġstronger":4754,"ydney":4755,"Ġdangerous":4756,"ĠWhile":4757,"Ġdelighted":4758,"between":4759,"Ġhighest":4760,"Ġabandoned":4761,"eleg":4762,"Ġvirtue":4763,"Uncle":4764,"Ġextraordinary":4765,"ĠLongbourn":4766,"Ġsavage":4767,"?...":4768,"gar":4769,"general":4770,"mond":4771,"view":4772,"yr":4773,"Ġsank":4774,"hall":4775,"Ġma":4776,"Ġhut":4777,"Ġgay":4778,"urd":4779,"rived":4780,"Ġsevere":4781,"cking":4782,"Ġsuit":4783,"geant":4784,"Ġrise":4785,"Ġexha":4786,"Ġworking":4787,"Ġproved":4788,"aches":4789,"Ġentertain":4790,"coming":4791,"Ġinside":4792,"Ġstrongly":4793,"Ġdancing":4794,"ification":4795,"umbling":4796,"Ġleading":4797,"Ġpossessed":4798,"Ġhussar":4799,"Ġmelancholy":4800,"Ġparents":4801,"Ġexplanation":4802,"Mary":4803,"lord":4804,"pes":4805,"taken":4806,"ulf":4807,"Ġ4":4808,"hend":4809,"Ġwed":4810,"Ġwarn":4811,"Ġsong":4812,"Ġsway":4813,"Ġoars":4814,"ouch":4815,"Ġcro":4816,"Ġinformed":4817,"Ġnames":4818,"imin":4819,"Ġgathered":4820,"stra":4821,"ential":4822,"ether":4823,"urance":4824,"Ġanger":4825,"Ġisland":4826,"ĠAm":4827,"Ġriding":4828,"usual":4829,"ĠWatson":4830,"Ġunconscious":4831,"ositions":4832,"ĠLizzy":4833,"Ġtwelve":4834,"Ġusually":4835,"Ġchin":4836,"achment":4837,"Ġgreatly":4838,"Ġreser":4839,"Ġappointed":4840,"import":4841,"Ġsteady":4842,"Ġfavor":4843,"Ġconnection":4844,"Ġgloomy":4845,"Ãºshin":4846,"necessary":4847,"bin":4848,"post":4849,"Ġwake":4850,"rely":4851,"Ġpra":4852,"stone":4853,"Ġrear":4854,"Ġassured":4855,"Ġstret":4856,"Ġsaved":4857,"ĠMamma":4858,"ĠSee":4859,"ĠBonaparte":4860,"ardon":4861,"uls":4862,"ulous":4863,"Ġrate":4864,"olation":4865,"Ġweary":4866,"Ġabsent":4867,"agger":4868,"ĠEven":4869,"ovich":4870,"shop":4871,"Ġplans":4872,"Ġchase":4873,"Ġentering":4874,"Ġkeen":4875,"answ":4876,"evol":4877,"served":4878,"standing":4879,"Ġlighted":4880,"Ġguests":4881,"Ġadmit":4882,"appro":4883,"Ġmurm":4884,"Ġ180":4885,"cluding":4886,"Ġmidst":4887,"Ġpicture":4888,"ĠTellson":4889,"Ġabsolutely":4890,";âĢĶ":4891,"Mad":4892,"eff":4893,"foll":4894,"knew":4895,"lad":4896,"sister":4897,"Ġsin":4898,"Ġobe":4899,"Ġbull":4900,"Ġcatch":4901,"armed":4902,"atures":4903,"Ġyards":4904,"irth":4905,"alling":4906,"ĠSuch":4907,"ulated":4908,"Ġknife":4909,"ections":4910,"Ġsprang":4911,"Ġgradually":4912,"soon":4913,"Ġintended":4914,"Ġflight":4915,"Ġflushed":4916,"Ġaccustomed":4917,"Ġserfs":4918,"Ġslee":4919,"headed":4920,"Ġawkward":4921,"Ġhelped":4922,"Ġrecalled":4923,"Ġfinish":4924,"Ġexpecting":4925,"Ġnecessity":4926,"Ġforgive":4927,"Ġstriking":4928,"Ġanxiety":4929,"particul":4930,"Ġaccompl":4931,"Ġwaist":4932,"Ġpossibility":4933,"acques":4934,"Alice":4935,"Ġcopyright":4936,"Ġthroat":4937,"etherfield":4938,":âĢĶ":4939,"lin":4940,"leness":4941,"oon":4942,"opp":4943,"uce":4944,"itive":4945,"Ġmate":4946,"Ġflying":4947,"Ġhospit":4948,"Ġdared":4949,"Ġdignity":4950,"lection":4951,"Ġpop":4952,"omen":4953,"ĠIvÃ¡n":4954,"utation":4955,"Ġstock":4956,"ĠMonseigneur":4957,"ĠMicha":4958,"ĠAd":4959,"Ġsovere":4960,"Ġsuite":4961,"ĠBerg":4962,"Ġdecl":4963,"Ġshowing":4964,"ĠDid":4965,"ĠFather":4966,"behind":4967,"Ġdesired":4968,"Ġattached":4969,"Ã©ra":4970,"aughters":4971,"Ġconfusion":4972,"Ġexchan":4973,"Ġhurt":4974,"Ġtransp":4975,"Ġgrey":4976,"Ġgolden":4977,"Ġdemanded":4978,"Ġsuggest":4979,"ĠMoby":4980,"Ġsovereign":4981,"AR":4982,"Some":4983,"covered":4984,"det":4985,"lor":4986,"pon":4987,"pol":4988,"uzz":4989,"vÃŃtski":4990,"Ġahead":4991,"inv":4992,"isp":4993,"inger":4994,"Ġcredit":4995,"esvÃŃtski":4996,"otter":4997,"Ġstorm":4998,"ĠAmeric":4999,"ilty":5000,"ulie":5001,"Ġvac":5002,"ĠCon":5003,"perhaps":5004,"Ġsomebody":5005,"Ġamiable":5006,"Ġretired":5007,"return":5008,"ensive":5009,"iction":5010,"oubt":5011,"myself":5012,"Ġfinal":5013,"Ġcharming":5014,"Ġinquired":5015,"Though":5016,"Ġequally":5017,"Ġeduc":5018,"Ġruin":5019,"Ġgovernment":5020,"Ġagreed":5021,"ĠMarquis":5022,"business":5023,"OOK":5024,"aly":5025,"dark":5026,"gest":5027,"Ġtired":5028,"Ġwaves":5029,"Ġbattery":5030,"Ġinhabit":5031,"Ġaspect":5032,"Ġseldom":5033,"ĠMe":5034,"illery":5035,"ĠHills":5036,"Ġshirt":5037,"Ġupper":5038,"usi":5039,"Ġknee":5040,"These":5041,"Ġrope":5042,"osen":5043,"Ġchap":5044,"Ġglory":5045,"Ġjustice":5046,"Ġraising":5047,"Ġserve":5048,"Ġwants":5049,"Ġmarked":5050,"Ġkindness":5051,"Ġstead":5052,"Ġhonest":5053,"Ġinterested":5054,"umbled":5055,"ugust":5056,"Ġcreatures":5057,"Ġsadd":5058,"Ġburned":5059,"Ġaccompanied":5060,"Ġefforts":5061,"Ġreproach":5062,"ĠTHE":5063,"Can":5064,"Per":5065,"Tell":5066,"bbed":5067,"lar":5068,"mod":5069,"make":5070,"sil":5071,"wed":5072,"Ġtakes":5073,"Ġarose":5074,"Ġpisto":5075,"omin":5076,"ĠIly":5077,"ĠMay":5078,"ĠHave":5079,"ĠHaving":5080,"ĠPeleg":5081,"ths":5082,"ĠSat":5083,"told":5084,"Ġride":5085,"Ġnephe":5086,"Ġdogs":5087,"ĠTheir":5088,"Ġexer":5089,"asted":5090,"Ġagitation":5091,"ĠHeaven":5092,"Ġprecious":5093,"Ġdisplay":5094,"ĠOur":5095,"many":5096,"shall":5097,"Ġcompar":5098,"Ġturns":5099,"Ġ(_":5100,"compre":5101,"Ġclever":5102,"Ġpersons":5103,"Ġtrif":5104,"Ġcrossing":5105,"smith":5106,"Ġpolite":5107,"Ġdespite":5108,"Ġclouds":5109,"ĠCossacks":5110,"person":5111,"Ġexceedingly":5112,"itizen":5113,"Ġarranged":5114,"Ġtongue":5115,"Ġnephew":5116,"dro":5117,"lished":5118,"mist":5119,"prom":5120,"ule":5121,"words":5122,"Ġwra":5123,"Ġwag":5124,"Ġbosom":5125,"itch":5126,"itating":5127,"Ġfly":5128,"Ġheat":5129,"arling":5130,"atory":5131,"Ġpress":5132,"Ġpicked":5133,"Ġnerv":5134,"Ġgives":5135,"Ġere":5136,"Ġemer":5137,"enter":5138,"aling":5139,"urÃ¡gin":5140,"riot":5141,"ĠAh":5142,"ĠPl":5143,"ĠSid":5144,"ĠSperÃ¡nski":5145,"Ġconsent":5146,"Ġwealth":5147,"Ġunhappy":5148,"Ġroll":5149,"open":5150,"Ã¡r":5151,"Ġfever":5152,"Ġfeared":5153,"Ġprepar":5154,"acles":5155,"Ġparted":5156,"Ġthrust":5157,"Ġscra":5158,"Ġrapt":5159,"ifference":5160,"Ġinstruct":5161,"sued":5162,"fortable":5163,"Ġfacts":5164,"ibility":5165,"Ġdriven":5166,"Ġoccasionally":5167,"Ġharpoon":5168,"Ġseparate":5169,"Ġagreement":5170,"Ġtrembling":5171,"Ġdeparture":5172,"Ġcouple":5173,"ilÃŃbin":5174,"Bor":5175,"Pro":5176,"far":5177,"kÃ³v":5178,"pany":5179,"yÃ¡":5180,"Ġav":5181,"inn":5182,"Ġcaut":5183,"Ġhollow":5184,"Ġdip":5185,"Ġdouble":5186,"asked":5187,"Ġphil":5188,"Ġhate":5189,"icles":5190,"erene":5191,"Ġancient":5192,"ifying":5193,"ĠMore":5194,"ament":5195,"ĠHad":5196,"quite":5197,"ĠBildad":5198,"Ġwholly":5199,"Ġwearing":5200,"Ġprospect":5201,"rue":5202,"Ġchim":5203,"Ġspend":5204,"Ġtrain":5205,"Ġsergeant":5206,"Ġlog":5207,"Ġsooner":5208,"Ġcapable":5209,"Ġhoriz":5210,"Ġdifference":5211,"Ġslept":5212,"Ġadvent":5213,"heads":5214,"Ġnaturally":5215,"Ġdetails":5216,"Ġdriving":5217,"Ġmerry":5218,"Ġremains":5219,"account":5220,"glass":5221,"Ġworthy":5222,"Ġcoachman":5223,"Ġfrost":5224,"Ġeagerly":5225,"arrass":5226,"ĠOrl":5227,"hensible":5228,"Ġqueer":5229,"morning":5230,"Ġwolf":5231,"hist":5232,"uke":5233,"whe":5234,"wood":5235,"yes":5236,"Ġwrink":5237,"Ġsinging":5238,"hales":5239,"Ġmour":5240,"Ġcher":5241,"Ġdaughters":5242,"Ġlat":5243,"Ġlun":5244,"Ġbeli":5245,"stru":5246,"Ġshud":5247,"Ġconve":5248,"Ġvig":5249,"Ġaloud":5250,"love":5251,"loved":5252,"iend":5253,"Ġsomehow":5254,"ĠLe":5255,"oseph":5256,"Ġprocess":5257,"why":5258,"Ġthrowing":5259,"Ġscience":5260,"ĠStates":5261,"Ġaccident":5262,"Ġloving":5263,"Ġlovely":5264,"Ġhearts":5265,"Ġhorrible":5266,"Ġswell":5267,"Ġrank":5268,"Ġcheeks":5269,"Ġactually":5270,"Ġinvoluntarily":5271,"Ġexcuse":5272,"ĠProvis":5273,"voice":5274,"ĠBennigsen":5275,"Ġwoods":5276,"Ġdefinite":5277,"Ġutmost":5278,"Ġmadame":5279,"Ġedge":5280,"Ġpursuit":5281,"Ġabandon":5282,"course":5283,"Ġjumped":5284,"Ġapparently":5285,"respond":5286,"agreeable":5287,").":5288,"BOOK":5289,"IL":5290,"ND":5291,"bro":5292,"coll":5293,"char":5294,"dest":5295,"four":5296,"foot":5297,"ik":5298,"Ġtied":5299,"Ġbal":5300,"orous":5301,"Ġgently":5302,"ĠeBook":5303,"Ġthunder":5304,"Ġrecommend":5305,"Ġstaring":5306,"among":5307,"ores":5308,"ĠHigh":5309,"ĠSaint":5310,"ularly":5311,"Ġexample":5312,"Ġagitated":5313,"Ġunfortunate":5314,"Ġhandkerchief":5315,"oves":5316,"tyard":5317,"Ġpermission":5318,"Ġattended":5319,"Ġenth":5320,"Ġtrad":5321,"Ġclass":5322,"Ġhousehold":5323,"Ġappears":5324,"Ġmoral":5325,"Ġsupport":5326,"Ġcapital":5327,"Ġcheek":5328,"Ġindifferent":5329,"Ġcrime":5330,"Ġobserve":5331,"themselves":5332,"Ġconsideration":5333,"Ġcauses":5334,"emple":5335,"ĠCharlotte":5336,"ferred":5337,"Ġrubles":5338,"Ġperplex":5339,"Dear":5340,"Gutenberg":5341,"bing":5342,"both":5343,"met":5344,"mast":5345,"pic":5346,"rated":5347,"tra":5348,"wild":5349,"Ġwin":5350,"eds":5351,"Ġbows":5352,"esc":5353,"Ġpieces":5354,"adron":5355,"Ġstared":5356,"riages":5357,"ĠTÃŃkhon":5358,"Ġsoot":5359,"ĠSherlock":5360,"Ã¡s":5361,"ountain":5362,"acher":5363,"Ġbrow":5364,"ignific":5365,"ĠKitty":5366,"atÃ¡ev":5367,"Ġrace":5368,"clam":5369,"Ġsecure":5370,"Ġswall":5371,"Ġinfinite":5372,"Ġevidence":5373,"ĠThree":5374,"aterial":5375,"Ġchiefly":5376,"Ġcolour":5377,"Ġmistake":5378,"Ġacquainted":5379,"Ġtorn":5380,"Ġdestroy":5381,"resently":5382,"Ġconnected":5383,"Ġdescribed":5384,"Ġreflected":5385,"grace":5386,"break":5387,"Ġnurse":5388,"Ġhidden":5389,"ĠAustrian":5390,"Ġdeclared":5391,"circumst":5392,"ds":5393,"fin":5394,"five":5395,"lom":5396,"oor":5397,"suddenly":5398,"Ġident":5399,"hearted":5400,"Ġsour":5401,"Ġsighed":5402,"Ġbree":5403,"Ġmajor":5404,"Ġmethod":5405,"once":5406,"Ġrelie":5407,"along":5408,"Ġforge":5409,"Ġsev":5410,"ĠHand":5411,"ĠHouse":5412,"alls":5413,"blem":5414,"Ġrough":5415,"anting":5416,"olid":5417,"isting":5418,"ĠNetherfield":5419,"Ġunpleasant":5420,"Ġanywhere":5421,"ĠLeviathan":5422,"ĠJohn":5423,"ires":5424,"Ġenv":5425,"Ġchoose":5426,"lesh":5427,"Ġdesign":5428,"Ġintimate":5429,"Ġconscience":5430,"ĠStill":5431,"ĠVÃ©ra":5432,"Ġlock":5433,"Ġtear":5434,"serve":5435,"Ġdragged":5436,"Ġbedroom":5437,"Ġrecovered":5438,"Ġassumed":5439,"Ġthousands":5440,"Ġpreviously":5441,"Ġengagement":5442,"Ġmistaken":5443,"Ġresolution":5444,"Ġsolitary":5445,"ĠArch":5446,"Ġastonishment":5447,"Ġconcerned":5448,"Ġgratitude":5449,"Ġharpooneer":5450,"Ġbattal":5451,"viour":5452,"Pet":5453,"Two":5454,"Thank":5455,"brows":5456,"Ġtest":5457,"Ġbill":5458,"Ġfill":5459,"Ġfra":5460,"Ġfem":5461,"Ġfulf":5462,"Ġcell":5463,"Ġcord":5464,"Ġclaim":5465,"left":5466,"Ġla":5467,"Ġlou":5468,"ĠIII":5469,"Ġbeast":5470,"imon":5471,"vert":5472,"Ġassemb":5473,"almost":5474,"Ġnoticing":5475,"ĠTsar":5476,"ille":5477,"ckets":5478,"ĠSch":5479,"ĠBo":5480,"Ġrush":5481,"Ġnearest":5482,"ĠĠĠ":5483,"aps":5484,"Ġspy":5485,"ĠEr":5486,"Ġprecise":5487,"ĠJacques":5488,"ĠJulie":5489,"Ġshare":5490,"Ġchosen":5491,"rence":5492,"Ġcontent":5493,"Ġattract":5494,"Ġobvious":5495,"Ġfriendly":5496,"Ġinstance":5497,"nowled":5498,"Ġfamous":5499,"ounter":5500,"Ġskin":5501,"Ġmisfortune":5502,"Ġsigns":5503,"undred":5504,"Ġclosely":5505,"guard":5506,"Ġcrowded":5507,"Ġcharm":5508,"mediate":5509,"Ġtrial":5510,"Ġpainful":5511,"Ġdestruction":5512,"Ġresolute":5513,"Ġsquare":5514,"Ġsensible":5515,"Ġanimal":5516,"Ġsnuff":5517,"Ġguardian":5518,"Ġloudly":5519,"Ġaccepted":5520,"Ġconviction":5521,"Ġdelicate":5522,"Ġstruggle":5523,"ĠPerhaps":5524,"Ġsuspicion":5525,"Ġprofession":5526,"Ġmysterious":5527,"Ġwedding":5528,"Ġbelief":5529,"Ġenthusi":5530,"Aye":5531,"dep":5532,"hur":5533,"ived":5534,"position":5535,"sur":5536,"ti":5537,"ture":5538,"wl":5539,"ĠâĢĶ_":5540,"Ġtask":5541,"Ġsnat":5542,"Ġcla":5543,"Ġded":5544,"Ġpowers":5545,"oms":5546,"Ġech":5547,"Ġeast":5548,"ĠTÃºshin":5549,"ĠTemple":5550,"Ġmeas":5551,"quiet":5552,"thousand":5553,"ĠSometimes":5554,"ighted":5555,"Ġshone":5556,"Ġshining":5557,"Ġcongrat":5558,"astic":5559,"agraph":5560,"Ġfeatures":5561,"Ġgoodness":5562,"Ġflat":5563,"Ġaccess":5564,"exc":5565,"Ġlocked":5566,"Ġwhalemen":5567,"possess":5568,"Ġcorrect":5569,"Ġbreaking":5570,"Ġrelated":5571,"ĠQu":5572,"Ġimagined":5573,"Ġartillery":5574,"Ġfigures":5575,"Ġquarters":5576,"Ġcircumstance":5577,"Ġfirmly":5578,"Ġvalue":5579,"Ġcaptured":5580,"Ġhammer":5581,"Ġtaste":5582,"Ġgesture":5583,"!...âĢĿ":5584,"Ind":5585,"bid":5586,"mas":5587,"surpr":5588,"ux":5589,"Ġtight":5590,"Ġaid":5591,"Ġack":5592,"erous":5593,"Ġcrying":5594,"Ġdig":5595,"Ġdrown":5596,"ĠII":5597,"icense":5598,"Ġstoo":5599,"Ġseam":5600,"alley":5601,"ĠSte":5602,"ĠBog":5603,"unning":5604,"ĠDr":5605,"aper":5606,"Ġsomewhat":5607,"Ġusing":5608,"Ġshape":5609,"Ġeverywhere":5610,"ovna":5611,"ĠKurÃ¡gin":5612,"attention":5613,"Ġrefuse":5614,"Ġterrif":5615,"Ġexcitement":5616,"Ġnative":5617,"Ġindepend":5618,"brance":5619,"Ġskill":5620,"Ġdevoted":5621,"Ġbench":5622,"Ġcutting":5623,"Ġcollect":5624,"Ġpossession":5625,"expression":5626,"Ġintellect":5627,"Ġadmiration":5628,"Ġfrequently":5629,"Ġinevit":5630,"quarters":5631,"Ġphilosop":5632,"Ġhorizon":5633,"IS":5634,"bu":5635,"ipped":5636,"kin":5637,"list":5638,"noe":5639,"sue":5640,"tin":5641,"tor":5642,"Ġtide":5643,"Ġodd":5644,"ittering":5645,"Ġmat":5646,"Ġcup":5647,"Ġdawn":5648,"Ġnarr":5649,"owder":5650,"Ġgle":5651,"Ġreception":5652,"urday":5653,"Ġsearch":5654,"pey":5655,"ili":5656,"Ġupstairs":5657,"astle":5658,"Ġunivers":5659,"Ġbrown":5660,"Ġgrim":5661,"leased":5662,"Ġattitude":5663,"Ġobst":5664,"ivory":5665,"Ġraise":5666,"ĠInjun":5667,"spir":5668,"lected":5669,"natured":5670,"Ġgreet":5671,"Ġimagination":5672,"lerval":5673,"strong":5674,"Ġcontrast":5675,"Ġremarks":5676,"Ġcomfortable":5677,"better":5678,"speak":5679,"Ġviolent":5680,"Ġcoffee":5681,"Ġconclusion":5682,"bes":5683,"daughter":5684,"different":5685,"pret":5686,"Ã¼":5687,"Ġbag":5688,"Ġborn":5689,"Ġhither":5690,"orough":5691,"Ġdamp":5692,"Ġpil":5693,"Ġbearing":5694,"Ġresemb":5695,"Ġstretched":5696,"ĠTra":5697,"ĠSc":5698,"ĠSydney":5699,"Ġconvers":5700,"Ġmanaged":5701,"ĠNesvÃŃtski":5702,"Ġrolling":5703,"Ġfailed":5704,"ĠRight":5705,"ĠRep":5706,"Ġproject":5707,"Ġshake":5708,"everal":5709,"conversation":5710,"Ġendure":5711,"Ġconfident":5712,"Ġcleared":5713,"Ġsword":5714,"Ġreadily":5715,"Ġinvited":5716,"plain":5717,"Ġforeign":5718,"Ġcareful":5719,"Ġsufficient":5720,"Ġuseless":5721,"pended":5722,"Ġgracious":5723,"Ġsurface":5724,"Ġlandlord":5725,"Ġabsor":5726,"Ġbreathing":5727,"cannot":5728,"Ġcompanions":5729,"Ġweakness":5730,"Ġmidnight":5731,"Ġmounted":5732,"Ġinquiry":5733,"Ġpictures":5734,"ĠUnited":5735,"Ġdeliber":5736,"Ġemploy":5737,"feeling":5738,"Ġmortal":5739,"satisfied":5740,"ĠIndian":5741,"twenty":5742,"iveness":5743,"gentleman":5744,"Ġdrunk":5745,"Ġinhabitants":5746,"peyson":5747,"CT":5748,"Emperor":5749,"IT":5750,"Que":5751,"RE":5752,"Re":5753,"iance":5754,"nor":5755,"sac":5756,"uv":5757,"âĦ":5758,"Ġ6":5759,"Ġtend":5760,"Ġtempt":5761,"itor":5762,"Ġcries":5763,"Ġhit":5764,"Ġdirty":5765,"Ġdrank":5766,"Ġdrinking":5767,"oward":5768,"ici":5769,"Ġgown":5770,"stri":5771,"Ġhers":5772,"ĠMock":5773,"ĠAged":5774,"ĠAunt":5775,"ĠHar":5776,"ĠSw":5777,"Ġshru":5778,"ulse":5779,"estic":5780,"orts":5781,"Ġjury":5782,"opy":5783,"ode":5784,"Ġamb":5785,"Ġproof":5786,"Ġprogress":5787,"Ġcontempl":5788,"Ġimpress":5789,"Ġnights":5790,"Ġfriendship":5791,"ailing":5792,"Ġafford":5793,"Ġrefused":5794,"eryton":5795,"Ġstands":5796,"Ġordinary":5797,"Ġconditions":5798,"Ġstopping":5799,"Ġearli":5800,"Ġlively":5801,"Ġapproach":5802,"Ġsleeping":5803,"Ġremaining":5804,"Ġstayed":5805,"Ġcraft":5806,"Ġlift":5807,"Ġsettle":5808,"bbing":5809,"Ġpulling":5810,"Ġaffectionate":5811,"Which":5812,"Ġbelonged":5813,"Ġexamined":5814,"Ġsmoking":5815,"Ġemployed":5816,"Ġfurniture":5817,"Ġcounter":5818,"Ġcoffin":5819,"Ġauthority":5820,"Ġsignificance":5821,"Ġtroubled":5822,"Ġ1812":5823,"ealous":5824,"BorÃŃs":5825,"âĦ¢":5826,"Com":5827,"Ex":5828,"Next":5829,"creat":5830,"dri":5831,"dig":5832,"fre":5833,"giving":5834,"ww":5835,"Ġtick":5836,"Ġmir":5837,"Ġmile":5838,"Ġmaterial":5839,"Ġhind":5840,"Ġdarted":5841,"Ġdarling":5842,"aned":5843,"Ġpan":5844,"Ġpir":5845,"hern":5846,"anded":5847,"ĠAra":5848,"illy":5849,"ĠPhil":5850,"ĠPolly":5851,"ĠBald":5852,"Ġdeeper":5853,"Ġlear":5854,"ĠNever":5855,"Ġabroad":5856,"Ġcoarse":5857,"deep":5858,"Ġentrance":5859,"comm":5860,"Ġcloser":5861,"Ġinstinct":5862,"Ġsetting":5863,"Ġfellows":5864,"Ġcourtyard":5865,"Ġpoints":5866,"Ġacted":5867,"cript":5868,"world":5869,"Ġillness":5870,"Ġstraw":5871,"Ġhumanity":5872,"Ġcontrad":5873,"ourable":5874,"Ġsquadron":5875,"Ġparagraph":5876,"Ġprayer":5877,"Ġfifteen":5878,"Ġsmooth":5879,"iterary":5880,"minded":5881,"Ġsuggested":5882,"Ġbirds":5883,"Ġdiscovery":5884,"Ġbuilding":5885,"Ġgrateful":5886,"Ġstaircase":5887,"Ġnervous":5888,"Ar":5889,"high":5890,"jud":5891,"sure":5892,"uable":5893,"Ġtale":5894,"Ġaye":5895,"inf":5896,"hast":5897,"Ġblock":5898,"Ġcli":5899,"âĢĿ,":5900,"Ġgas":5901,"Ġgather":5902,"Ġeh":5903,"Ġwithdra":5904,"alities":5905,"urrah":5906,"Ġnotes":5907,"rier":5908,"ifted":5909,"ĠBank":5910,"Ġvale":5911,"Ġlip":5912,"ryph":5913,"apa":5914,"Ġarch":5915,"osure":5916,"ofty":5917,"Ġshade":5918,"Ġbrain":5919,"Ġrepla":5920,"Ġperceived":5921,"tego":5922,"Ġrage":5923,"Ġserved":5924,"Ġseries":5925,"Ġseriously":5926,"evidently":5927,"Ġsilver":5928,"Ġemotion":5929,"Ġsteward":5930,"Ġdoesn":5931,"ashtego":5932,"Ġtruly":5933,"Ġlads":5934,"respect":5935,"Ġbadly":5936,"Ġsummon":5937,"Ġpropos":5938,"Ġproposed":5939,"Ġballs":5940,"Ġduties":5941,"Ġrecognized":5942,"emberley":5943,"Ġbehaviour":5944,"Ġextremely":5945,"Ġfolded":5946,"Ġintervals":5947,"Ġmystery":5948,"faced":5949,"ryphon":5950,"Bec":5951,"Char":5952,"Nor":5953,"ON":5954,"Sh":5955,"find":5956,"gor":5957,"uced":5958,"Ġwest":5959,"Ġoh":5960,"isk":5961,"iteness":5962,"asions":5963,"Ġple":5964,"Ġpuff":5965,"Ġlofty":5966,"Ġbeheld":5967,"otted":5968,"icle":5969,"Ġgent":5970,"stem":5971,"Ġstiff":5972,"ĠHatter":5973,"Ġdearest":5974,"emb":5975,"emark":5976,"Ġrow":5977,"Ġmanif":5978,"Ġweap":5979,"Ã¡d":5980,"acious":5981,"Ġthanks":5982,"Ġenergy":5983,"inks":5984,"Ġdistress":5985,"Ġelbow":5986,"Ġlaying":5987,"Ġcrown":5988,"Ġextent":5989,"Ġmovements":5990,"Ġmercy":5991,"Ġviews":5992,"Ġformerly":5993,"sometimes":5994,"evening":5995,"Ġsingular":5996,"Ġfoolish":5997,"Ġchoice":5998,"Ġrequired":5999,"Ġframe":6000,"Ġneighbourhood":6001,"Ġsucceeded":6002,"Ġcompassion":6003,"Ġexhausted":6004,"Ġpistol":6005,"Lord":6006,"cra":6007,"cried":6008,"gate":6009,"hib":6010,"lim":6011,"lerable":6012,"mpt":6013,"power":6014,"uz":6015,"uly":6016,"Ġ5":6017,"Ġwicked":6018,"Ġoper":6019,"erl":6020,"Ġbone":6021,"Ġbones":6022,"Ġcere":6023,"Ġcool":6024,"ese":6025,"Ġpressing":6026,"Ġnigh":6027,"Ġlack":6028,"imag":6029,"Ġthorough":6030,"Ġreaching":6031,"Ġrendered":6032,"verse":6033,"Ġash":6034,"Ġseason":6035,"ĠHun":6036,"Ġvol":6037,"Ġarrest":6038,"Ġseeking":6039,"often":6040,"Ġpartner":6041,"Ġthinks":6042,"Ġblushed":6043,"Ġbetray":6044,"clay":6045,"Ġminds":6046,"Ġlights":6047,"Ġcorrespond":6048,"Ġrang":6049,"Ġguilty":6050,"Ġinvitation":6051,"Ġshouts":6052,"Ġsentence":6053,"Ġinspect":6054,"Ġinterests":6055,"Ġuseful":6056,"Ġobservation":6057,"Ġprepare":6058,"Ġpreparing":6059,"Ġdivision":6060,"Ġpatron":6061,"Ġfields":6062,"prison":6063,"Ġmountains":6064,"Ġshadows":6065,"ivering":6066,"Ġbrave":6067,"Ġconceal":6068,"Ġfrowning":6069,"human":6070,"Ġhamm":6071,"Ġawaiting":6072,"ĠTurtle":6073,"Ã©evich":6074,"Ġuncomfortable":6075,"Ġmusket":6076,"Ġignorant":6077,"Ġdisturbed":6078,"Ġjacket":6079,"Ġsacrifice":6080,"Perhaps":6081,"Because":6082,"May":6083,"cross":6084,"een":6085,"gave":6086,"name":6087,"since":6088,"tran":6089,"Ġtheory":6090,"Ġwre":6091,"Ġblo":6092,"Ġmag":6093,"Ġfled":6094,"Ġhoo":6095,"org":6096,"orable":6097,"Ġinner":6098,"Ġpounds":6099,"Ġlot":6100,"ĠIV":6101,"strange":6102,"urat":6103,"Ġstage":6104,"rill":6105,"Ġsaf":6106,"Ġmembers":6107,"toine":6108,"ulation":6109,"Ġdozen":6110,"Ġaloft":6111,"Ġweep":6112,"Ġagony":6113,"Ġroyal":6114,"ounted":6115,"Ġmarrying":6116,"Ġcarriages":6117,"Ġaddition":6118,"Ġaffected":6119,"Ġcommanders":6120,"Ġawoke":6121,"does":6122,"Ġfootman":6123,"Ġcalcul":6124,"Ġconcent":6125,"however":6126,"Ġswear":6127,"Ġruined":6128,"Ġsailors":6129,"Ġcandles":6130,"Ġseparated":6131,"Before":6132,"Ġproceeded":6133,"Ġgovernor":6134,"Ġcompliment":6135,"Ġrespons":6136,"Ġunexpectedly":6137,"Ġcomprehend":6138,"ĠMichael":6139,"Ġdiplom":6140,"Ġchimney":6141,"ĠOrlick":6142,"Ġceremon":6143,"During":6144,"bits":6145,"fur":6146,"ference":6147,"gers":6148,"gone":6149,"mir":6150,"oked":6151,"rant":6152,"uously":6153,"wife":6154,"Ã¦":6155,"hered":6156,"Ġwing":6157,"Ġsize":6158,"Ġfiend":6159,"orious":6160,"especially":6161,"llen":6162,"aries":6163,"Ġpot":6164,"Ġpace":6165,"Ġeating":6166,"Ġrevenge":6167,"Ġascend":6168,"Ġwhir":6169,"urred":6170,"Ġstars":6171,"Ġsear":6172,"ĠMarch":6173,"ĠAre":6174,"ĠAugust":6175,"arded":6176,"ulate":6177,"Ġrad":6178,"Ġrubb":6179,"antity":6180,"ĠWas":6181,"Ġknitting":6182,"Ġuncertain":6183,"ĠGryphon":6184,"Ġproc":6185,"russi":6186,"Ġbegged":6187,"onday":6188,"Ġchamber":6189,"ordered":6190,"Ġlasted":6191,"Ġintim":6192,"Ġinstrum":6193,"Ġanswering":6194,"oubted":6195,"Ġreflection":6196,"Ġcorps":6197,"actor":6198,"brother":6199,"therefore":6200,"Ġcondem":6201,"Ġdanced":6202,"Ġstrangely":6203,"Ġneeds":6204,"Ġmilit":6205,"Ġdirections":6206,"Ġfanc":6207,"happiness":6208,"Ġembarrass":6209,"change":6210,"Ġpatriot":6211,"Ġconstant":6212,"ĠEverything":6213,"olyte":6214,"Ġbrief":6215,"Ġfighting":6216,"Ġdescribe":6217,"Ġfatal":6218,"Ġhungry":6219,"ĠUncle":6220,"Ġmarshes":6221,"Ġtreated":6222,"Ġconsequence":6223,"Ġdistinctly":6224,"Ġembraced":6225,"Ġcomrade":6226,"ĠKaratÃ¡ev":6227,"Ġbecoming":6228,"towards":6229,"occupied":6230,"ippolyte":6231,"Queequeg":6232,"erlitz":6233,"Ahab":6234,"Jane":6235,"dy":6236,"word":6237,"Ġivory":6238,"Ġsou":6239,"Ġske":6240,"asm":6241,"army":6242,"Ġpin":6243,"Ġpage":6244,"Ġhal":6245,"Ġlone":6246,"Ġlately":6247,"utch":6248,"Ġgar":6249,"Ġgain":6250,"street":6251,"ads":6252,"already":6253,"eren":6254,"ools":6255,"Ġmeasure":6256,"illa":6257,"ilities":6258,"ĠSe":6259,"ĠBilÃŃbin":6260,"Ġdoct":6261,"Ġvivid":6262,"elix":6263,"Ġnois":6264,"Ġwept":6265,"uming":6266,"ĠDeath":6267,"Ġunnatural":6268,"Ġard":6269,"Ġjealous":6270,"Ġspark":6271,"abs":6272,"Ġpreced":6273,"Ġoffended":6274,"Ġproblem":6275,"ĠJoseph":6276,"Ġplun":6277,"Ġletting":6278,"Ġsche":6279,"--âĢĿ":6280,"conn":6281,"ĠVI":6282,"Ġclock":6283,"reading":6284,"lication":6285,"Ġstream":6286,"days":6287,"Ġindifference":6288,"Ġsounded":6289,"Ġremembrance":6290,"Ġirrit":6291,"Ġrepeating":6292,"Ġadmire":6293,"Ġadmitted":6294,"Ġeyebrows":6295,"small":6296,"Ġeleg":6297,"Ġportra":6298,"Ġvictim":6299,"Ġrelig":6300,"Ġtenderness":6301,"Ġvanished":6302,"subject":6303,"window":6304,"Ġceiling":6305,"Ġfetch":6306,"Ġrevealed":6307,"Ġborz":6308,"Ġcontinue":6309,"Ġtriumph":6310,"Ġcottage":6311,"Ġtormented":6312,"appearance":6313,"soldiers":6314,"Indeed":6315,"Car":6316,"Holmes":6317,"PÃ©tya":6318,"Take":6319,"ben":6320,"black":6321,"caut":6322,"eel":6323,"ki":6324,"lers":6325,"liness":6326,"miss":6327,"Ġpardon":6328,"stead":6329,"entered":6330,"Ġstuff":6331,"Ġate":6332,"Ġdeed":6333,"geon":6334,"ols":6335,"else":6336,"istic":6337,"Ġunlike":6338,"Ġunusual":6339,"Ġjoke":6340,"oping":6341,"osings":6342,"Ġfears":6343,"Ġamuse":6344,"ĠGrand":6345,"Ġhappening":6346,"Ġpron":6347,"Ġended":6348,"Ġlightly":6349,"Ġstrict":6350,"Ġsleigh":6351,"Ġcrit":6352,"Ġsurely":6353,"Ġsunk":6354,"Ġfourth":6355,"Ġsorts":6356,".âĢĻâĢĿ":6357,"umbers":6358,"smile":6359,"Ġtreasure":6360,"Ġlifting":6361,"ĠXXI":6362,"ĠXXV":6363,"ĠNothing":6364,"Ġrule":6365,"holding":6366,"Ġsailor":6367,"earth":6368,"Ġreports":6369,"Herbert":6370,"Ġexecution":6371,"castle":6372,"Ġwheels":6373,"Ġoriginal":6374,"Ġcomrades":6375,"Ġlarger":6376,"Ġreminded":6377,"ienna":6378,"Ġtossed":6379,"Ġmurderer":6380,"family":6381,"Ġdesperate":6382,"comprehensible":6383,"Again":6384,"Benn":6385,"Captain":6386,"Pray":6387,"aily":6388,"bably":6389,"ean":6390,"fig":6391,"fuel":6392,"finger":6393,"io":6394,"iel":6395,"move":6396,"oving":6397,"rather":6398,"sus":6399,"sum":6400,"hess":6401,"inqu":6402,"inate":6403,"inity":6404,"inions":6405,"Ġwip":6406,"Ġwise":6407,"eral":6408,"Ġming":6409,"Ġdart":6410,"Ġinsp":6411,"anger":6412,"Ġpure":6413,"Ġnations":6414,"Ġbeating":6415,"idel":6416,"uries":6417,"rovo":6418,"ĠMeryton":6419,"ĠMonday":6420,"amps":6421,"ĠDuc":6422,"apsed":6423,"Ġrob":6424,"oses":6425,"Ã¡rovo":6426,"ĠEx":6427,"ĠGreen":6428,"Ġprovis":6429,"Ġimmediate":6430,"Ġsmart":6431,"Ġenchant":6432,"uchÃ¡rovo":6433,"Ġbrid":6434,"manner":6435,"whom":6436,"Ġparties":6437,"Ġreported":6438,"Ġarmchair":6439,"Ġblank":6440,"Ġscrew":6441,"Ġcontro":6442,"Ġresumed":6443,"within":6444,"Ġdonations":6445,"gery":6446,"Ġrested":6447,"Ġindign":6448,"Ġcommanded":6449,"Ġvisited":6450,"formation":6451,"Ġdining":6452,"Ġfreely":6453,"Ġslightest":6454,"Ġdelightful":6455,"Ġhistorical":6456,"letter":6457,"Ġinquiries":6458,"Ġdeserted":6459,"country":6460,"Ġcapture":6461,"Ġprotect":6462,"Ġslipped":6463,"Ġfrowned":6464,"Ġdiscover":6465,"Ġcommunication":6466,"Ġspectacles":6467,"Ġapprehens":6468,"Ġdescended":6469,"Ġdomestic":6470,"Ġpatient":6471,"Ġwidow":6472,"Ġliberty":6473,"Ġassociated":6474,"Ġgrasp":6475,"Ġwelcome":6476,"important":6477,"opyright":6478,"Anat":6479,"Gregor":6480,"Say":6481,"aved":6482,"best":6483,"ded":6484,"direct":6485,"free":6486,"fellow":6487,"nes":6488,"oc":6489,"war":6490,"Ġ8":6491,"Ġing":6492,"Ġty":6493,"Ġaut":6494,"inated":6495,"Ġslo":6496,"rels":6497,"haired":6498,"Ġbarb":6499,"Ġbirth":6500,"Ġfountain":6501,"Ġcard":6502,"Ġcave":6503,"Ġcunning":6504,"ased":6505,"Ġhaven":6506,"Ġling":6507,"Ġlur":6508,"ĠIX":6509,"Ġelo":6510,"Ġreward":6511,"Ġresent":6512,"Ġforms":6513,"ĠTashtego":6514,"Ġsobs":6515,"quet":6516,"Ġdel":6517,"Ġconven":6518,"Ġroused":6519,"Ġalter":6520,"Ġouter":6521,"apers":6522,"ivered":6523,"abbit":6524,"Ġadop":6525,"ÃŃl":6526,"dec":6527,"Ġhole":6528,"Ġdesk":6529,"Ġobsc":6530,"Ġcommitted":6531,"Ġflu":6532,"Ġtrades":6533,"common":6534,"Ġreference":6535,"ĠXII":6536,"ograph":6537,"Ġminister":6538,"Ġgrav":6539,"Ġarrive":6540,"Ġreality":6541,"Ġlowered":6542,"pleasure":6543,"Ġdivine":6544,"Ġescaped":6545,"Ġsternly":6546,"000":6547,"Ġeldest":6548,"ĠChristian":6549,"Ġtax":6550,"ology":6551,"Ġtrembled":6552,"Ġwondered":6553,"ĠĠĠĠĠĠĠĠĠĠĠĠĠĠĠĠĠĠĠĠĠĠĠĠĠĠĠĠĠĠĠĠĠĠĠĠĠĠĠĠ":6554,"Ġknocked":6555,"Ġtimidly":6556,"Ġphysical":6557,"Ġreferred":6558,"ĠSaturday":6559,"Ġinstructions":6560,"Ġacknowled":6561,"Ġabsorbed":6562,"Ġashore":6563,"Biddy":6564,"Yet":6565,"care":6566,"drew":6567,"diff":6568,"flo":6569,"gen":6570,"gall":6571,"rusted":6572,"sol":6573,"sail":6574,"wat":6575,"reco":6576,"repro":6577,"isible":6578,"itud":6579,"enough":6580,"Ġfix":6581,"Ġtore":6582,"orms":6583,"Ġdine":6584,"Ġhence":6585,"Ġnum":6586,"Ġbending":6587,"sea":6588,"Ġsand":6589,"ĠMor":6590,"ĠPotter":6591,"pelled":6592,"ĠSimon":6593,"ĠBour":6594,"ĠBrit":6595,"Ġringing":6596,"Ġneat":6597,"ĠWal":6598,"Ġmankind":6599,"Ġnoon":6600,"live":6601,"unk":6602,"ĠDuring":6603,"aping":6604,"ĠCour":6605,"ĠLike":6606,"Ġspr":6607,"ĠGen":6608,"Ġwilling":6609,"Ġpoet":6610,"Ġcoast":6611,"Ġthanked":6612,"icken":6613,"Ġglittering":6614,"attering":6615,"Ġtrick":6616,"conven":6617,"Ġclas":6618,"retch":6619,"ĠVIII":6620,"Ġloc":6621,"Ġsteam":6622,"ernal":6623,"feet":6624,"Ġinvest":6625,"Ġblacksmith":6626,"ĠThose":6627,"Ġpowerful":6628,"years":6629,"Ġgrace":6630,"Ġmerchant":6631,"Ġjoyful":6632,"Ġdisposition":6633,"Ġfortnight":6634,"Ġsadly":6635,"Ġcrack":6636,"Ġsharks":6637,"Ġgaze":6638,"Ġbuy":6639,"Ġstarting":6640,"Ġjudgment":6641,"saying":6642,"Ġmodern":6643,"Ġcentre":6644,"Ġneighbor":6645,"Ġblessed":6646,"Ġexecuted":6647,"Ġmotionless":6648,"Ġhinted":6649,"Ġimprove":6650,"Ġuneasy":6651,"rÃ©mond":6652,"Ġdistinguished":6653,"Russian":6654,"Ġfishery":6655,"Ġphr":6656,"Ġintelligence":6657,"Ġsteadily":6658,"Ġwrapped":6659,"ĠHandel":6660,"Ġvalet":6661,"Anatole":6662,"rÃ©monde":6663,"Am":6664,"LE":6665,"Pip":6666,"See":6667,"UT":6668,"eem":6669,"eau":6670,"fish":6671,"home":6672,"lan":6673,"lance":6674,"mates":6675,"rot":6676,"sch":6677,"vol":6678,"viously":6679,"viathan":6680,"whis":6681,"Ġtack":6682,"Ġtip":6683,"Ġtaught":6684,"ina":6685,"Ġoak":6686,"ouis":6687,"Ġmajest":6688,"Ġfought":6689,"Ġfired":6690,"Ġpushing":6691,"omy":6692,"Ġlosing":6693,"Ġbeloved":6694,"impossible":6695,"stre":6696,"Ġrenew":6697,"Ġwhip":6698,"Ġhadn":6699,"Ġstuck":6700,"Ġmechan":6701,"ĠPrussi":6702,"ĠSuddenly":6703,"Ġshoot":6704,"ulting":6705,"ulations":6706,"Ġleis":6707,"olgor":6708,"ortion":6709,"Ġquantity":6710,"ĠRosings":6711,"ĠJack":6712,"bear":6713,"Ġenvelo":6714,"Ġcomplex":6715,"Ġarmies":6716,"deck":6717,"Ġholy":6718,"Ġobtain":6719,"Ġconsisted":6720,"Ġconsolation":6721,"Ġflour":6722,"Ġclub":6723,"ĠVII":6724,"ĠVienna":6725,"Ãºkov":6726,"evil":6727,"Ġactive":6728,"Ġinsisted":6729,"worth":6730,"works":6731,"Ġsurround":6732,"resist":6733,"Ġobjects":6734,"Ġprevented":6735,"Ġabsurd":6736,"ships":6737,"ĠPeter":6738,"atively":6739,"Ġstaying":6740,"Ġcalmly":6741,"Ġaccompany":6742,"Ġdreams":6743,"Ġconstantly":6744,"Ġdegrees":6745,"ĠXVI":6746,"fortunes":6747,"Ġastonished":6748,"Ãºshka":6749,"Ġattentively":6750,"ĠXIV":6751,"Ġfavourite":6752,"ĠBarclay":6753,"consider":6754,"Ġuncommon":6755,"Ġlanguage":6756,"Ġargument":6757,"Ġexercise":6758,"Project":6759,"ĠRepublic":6760,"Ġfancied":6761,"olgorÃºkov":6762,"Ch":6763,"Con":6764,"Defarge":6765,"dor":6766,"full":6767,"fold":6768,"gue":6769,"mine":6770,"making":6771,"oom":6772,"pen":6773,"rade":6774,"sman":6775,"tri":6776,"vill":6777,"Ġ9":6778,"Ġtones":6779,"Ġwave":6780,"ouching":6781,"oner":6782,"Ġhiding":6783,"Ġdwell":6784,"Ġniece":6785,"omed":6786,"Ġgrin":6787,"Ġwasn":6788,"urst":6789,"Ġsailed":6790,"ĠâĢľ_":6791,"ĠPresently":6792,"ĠPemberley":6793,"Ġsheet":6794,"ĠSqu":6795,"Ġexternal":6796,"Ġnob":6797,"ĠClerval":6798,"opened":6799,"osp":6800,"Ġquit":6801,"ĠLiterary":6802,"ĠRed":6803,"ĠRabbit":6804,"Ġpockets":6805,"arsad":6806,"Ġremorse":6807,"Ġbrisk":6808,"Ġnevertheless":6809,"Ġowner":6810,"Ġarmed":6811,"Ġperil":6812,"dev":6813,"Ġscattered":6814,"sole":6815,"jected":6816,"except":6817,"Ġclim":6818,"Ġclut":6819,"ertainly":6820,"Ġlightning":6821,"ĠAntoine":6822,"bye":6823,"poor":6824,"Ġadvancing":6825,"Ġmeanwhile":6826,"Ġawake":6827,"Ġcurrent":6828,"aneously":6829,"Ġrecord":6830,"Ġdetail":6831,"Ġorderly":6832,"Ġextended":6833,"Ġdeparted":6834,"hope":6835,"Ġobjection":6836,"Ġwondering":6837,"Ġsocial":6838,"Ġbuilt":6839,"desp":6840,"Ġwaved":6841,"Ġgrie":6842,"Ġmodest":6843,"Ġhunting":6844,"Ġprovided":6845,"occasion":6846,"horse":6847,"Ġannounced":6848,"Ġmissing":6849,"fordshire":6850,"Ġwheel":6851,"ĠCompeyson":6852,"Ġpersuade":6853,"Ġsufferings":6854,"Ġborne":6855,"Ġbodies":6856,"Ġscreamed":6857,"Ġwandered":6858,"Ġessential":6859,"ĠEvrÃ©monde":6860,"continued":6861,"Ġsubstance":6862,"Ġaccomplished":6863,"clamation":6864,"Or":6865,"Such":6866,"bell":6867,"dered":6868,"eye":6869,"gy":6870,"gir":6871,"gener":6872,"hour":6873,"kch":6874,"sl":6875,"sound":6876,"sper":6877,"six":6878,"uge":6879,"Ġtut":6880,"Ġsink":6881,"repe":6882,"Ġbase":6883,"Ġbund":6884,"onet":6885,"Ġfru":6886,"Ġfitted":6887,"Ġcoo":6888,"Ġdiver":6889,"asc":6890,"Ġheed":6891,"leton":6892,"Ġpier":6893,"Ġhabits":6894,"omte":6895,"Ġloo":6896,"oting":6897,"imm":6898,"idents":6899,"Ġgates":6900,"sto":6901,"Ġeternal":6902,"Ġassent":6903,"rie":6904,"ĠMason":6905,"quick":6906,"ĠBaker":6907,"Ġshy":6908,"Ġlee":6909,"Ġexert":6910,"Ġaltered":6911,"Ġalike":6912,"Ġalarmed":6913,"lig":6914,"akened":6915,"aging":6916,"Ġquitted":6917,"ĠFirst":6918,"Ã³y":6919,"ĠGab":6920,"Ġcover":6921,"avo":6922,"rowing":6923,"Ġspecies":6924,"Ġintently":6925,"Ġmaybe":6926,"Ġattracted":6927,"Ġobtained":6928,"Ġfeels":6929,"experi":6930,"ĠFrenchmen":6931,"Ġmarve":6932,"ĠAnother":6933,"Ġcorn":6934,"Ġinterview":6935,"Ġsteep":6936,"Ġtrap":6937,"Ġincred":6938,"Ġreluct":6939,"cribed":6940,"Ġrepeat":6941,"Ġfootsteps":6942,"Ġbrothers":6943,"Ġpains":6944,"Ġsixty":6945,"Ġcollected":6946,"Ġsensation":6947,"Ġcampfire":6948,"Ġprobable":6949,"Ġrecognize":6950,"ĠAusterlitz":6951,"Ġmarks":6952,"Ġprovide":6953,"Ġheavens":6954,"acquaint":6955,"Ġlantern":6956,"Ġcivility":6957,"Ġpaced":6958,"Ġawaited":6959,"Ġjaws":6960,"Ġharpooneers":6961,"Ġestablish":6962,"Ġestablished":6963,"followed":6964,"Ġobey":6965,"Ġclient":6966,"Ġsouls":6967,"Ġdoctors":6968,"difficul":6969,"kchÃ©ev":6970,"LI":6971,"ais":6972,"bows":6973,"cred":6974,"hundred":6975,"ipping":6976,"large":6977,"mosp":6978,"pur":6979,"pill":6980,"rict":6981,"roud":6982,"till":6983,"Ġrom":6984,"Ġvers":6985,"Ġsang":6986,"hair":6987,"edy":6988,"Ġbought":6989,"ishes":6990,"Ġmates":6991,"Ġflesh":6992,"Ġincluding":6993,"ann":6994,"Ġpoured":6995,"Ġpuzz":6996,"Ġnation":6997,"Ġlance":6998,"utions":6999,"Ġgig":7000,"stained":7001,"several":7002,"Ġec":7003,"Ġrender":7004,"irmed":7005,"irts":7006,"alone":7007,"Ġnotion":7008,"Ġsty":7009,"Ġstones":7010,"Ġsailing":7011,"Ġsails":7012,"ĠTe":7013,"Ġsees":7014,"ĠMc":7015,"ĠMat":7016,"ĠHippolyte":7017,"Ġshel":7018,"Ġdefe":7019,"Ġrows":7020,"Ġleather":7021,"Ġlevel":7022,"Ġexcess":7023,"oles":7024,"ĠWould":7025,"arts":7026,"umerable":7027,"ĠDav":7028,"ĠDuke":7029,"Ġroar":7030,"Ġrock":7031,"agre":7032,"Ġfeather":7033,"Ġovercome":7034,"mention":7035,"beaut":7036,"Ġbran":7037,"forward":7038,"whose":7039,"intell":7040,"Ġblows":7041,"Ġintense":7042,"Ġflowers":7043,"conv":7044,"const":7045,"Ġwhaleman":7046,"Ġnewly":7047,"Ġclosing":7048,"success":7049,"ĠXIII":7050,"Ġsteel":7051,"Ġ11":7052,"until":7053,"ĠThatcher":7054,"Ġforever":7055,"Ġcrimin":7056,"Ġskull":7057,"Ġdoubts":7058,"ĠBefore":7059,"guish":7060,"ormouse":7061,"Ġfearful":7062,"Ġburied":7063,"willing":7064,"Ġrespectfully":7065,"Ġhundreds":7066,"complete":7067,"Ġregimental":7068,"Ġencounter":7069,"Ġproduce":7070,"Ġcenter":7071,"Ġresults":7072,"Ġreflections":7073,"Ġvanity":7074,"Ġpenet":7075,"Ġendeavoured":7076,"Ġwondrous":7077,"stein":7078,"Ġcease":7079,"Ġhunger":7080,"Ġpillow":7081,"Ġrisen":7082,"Ġurged":7083,"waiting":7084,"Ġmurmured":7085,"struck":7086,"Ġshudder":7087,"circumstances":7088,"Petersburg":7089,"Ġassembled":7090,"Ġenthusiasm":7091,"ĠTrabb":7092,"Ġsummoned":7093,"Ġportrait":7094,"ĠDuchess":7095,"itudes":7096,"?...âĢĿ":7097,"ES":7098,"hot":7099,"horses":7100,"iated":7101,"kers":7102,"maid":7103,"past":7104,"rÃºshka":7105,"squ":7106,"tfordshire":7107,"want":7108,"zes":7109,"Â£":7110,"help":7111,"infl":7112,"Ġsne":7113,"enry":7114,"Ġfrank":7115,"Ġhy":7116,"Ġdil":7117,"Ġdumb":7118,"Ġdrum":7119,"ashes":7120,"lee":7121,"Ġpred":7122,"Ġhaunt":7123,"Ġnaked":7124,"Ġlin":7125,"Ġet":7126,"Ġerect":7127,"ayed":7128,"also":7129,"Ġisn":7130,"Ġissued":7131,"Ġmender":7132,"ĠMurat":7133,"Ġsolic":7134,"ĠPfuel":7135,"Ġbutter":7136,"ĠSouth":7137,"Ġsho":7138,"ems":7139,"Ġrout":7140,"antages":7141,"Ġdoll":7142,"Ġexception":7143,"usk":7144,"usions":7145,"elk":7146,"Ġabhor":7147,"ĠCar":7148,"ĠFran":7149,"ĠFelix":7150,"ĠGar":7151,"ĠGive":7152,"ĠJudge":7153,"mean":7154,"Ġlikewise":7155,"Ġdish":7156,"Ġdaylight":7157,"Ġlonged":7158,"Ġhoarse":7159,"Ã©v":7160,"ubber":7161,"ucked":7162,"Ġloaded":7163,"Ġends":7164,"Ġsupposing":7165,",âĢĶâĢľ":7166,"Ġcheck":7167,"ggy":7168,"harpo":7169,"Ġdrops":7170,"Ġdropping":7171,"Ġtrace":7172,"Ġincident":7173,"Ġcircles":7174,"ĠThus":7175,"Ġdeadly":7176,"Ġobserving":7177,"Ġparticulars":7178,"yourself":7179,"Ġsquee":7180,"Ġsolitude":7181,"Ġencoura":7182,"Ġconstit":7183,"Ġelev":7184,"blood":7185,"Another":7186,"Anna":7187,"Ġspiritual":7188,"Ġdismal":7189,"Ġfatig":7190,"Ġenjoyed":7191,"Ġmissed":7192,"Ġdelivered":7193,"Ġbeaten":7194,"passed":7195,"court":7196,"Ġutterly":7197,"satisfaction":7198,"Ġflag":7199,"Ġindicated":7200,"Ġimpatient":7201,"Ġrecollection":7202,"officers":7203,"Ġswiftly":7204,"Ġtranquill":7205,"Ġsuspected":7206,"Ġmillions":7207,"Ġicon":7208,"Madame":7209,"Ġeducation":7210,"ĠHighness":7211,"Ġsource":7212,"iciently":7213,"Ġsafety":7214,"Ġlonely":7215,"AN":7216,"Estella":7217,"OU":7218,"Please":7219,"bers":7220,"cut":7221,"fav":7222,"och":7223,"phant":7224,"swe":7225,"sleep":7226,"town":7227,"uated":7228,"Ãª":7229,"Ġ7":7230,"Ġwig":7231,"Ġoath":7232,"Ġfain":7233,"Ġfile":7234,"Ġtools":7235,"Ġdined":7236,"Ġdense":7237,"Ġdashed":7238,"Ġheels":7239,"Ġincess":7240,"sev":7241,"urity":7242,"herkÃ³v":7243,"ĠTake":7244,"ĠToll":7245,"ĠThy":7246,"ĠPe":7247,"ĠBer":7248,"ĠBel":7249,"elled":7250,"Ġvice":7251,"Ġmanage":7252,"umps":7253,"ĠDron":7254,"ĠDormouse":7255,"ĠLittle":7256,"ĠGra":7257,"ĠGreat":7258,"ĠRo":7259,"acific":7260,"icking":7261,"Ġcompared":7262,"death":7263,"avrÃºshka":7264,"Ġplump":7265,"Ġplenty":7266,"Ġresist":7267,"Ġretire":7268,"Ġcommence":7269,"linging":7270,"tingu":7271,"Ġlover":7272,"eva":7273,"Ġstrain":7274,"ĠAny":7275,"Ġcorrid":7276,"Ġindul":7277,"Ġfires":7278,"Ġhopeless":7279,"Ġinvisible":7280,"grim":7281,"Ġrecall":7282,"Ġassurance":7283,"brary":7284,"Ġexpectation":7285,"character":7286,"Ġrealized":7287,"Ġaccounts":7288,"Ġmadam":7289,"Ġsystem":7290,"contr":7291,"Ġsensations":7292,"ributed":7293,"Ġstartled":7294,"Ġdivided":7295,"thoughts":7296,"Ġsending":7297,"Ġfurnished":7298,"Ġrevol":7299,"Ġassistance":7300,"ĠChristmas":7301,"Ġattentive":7302,"Ġpersuaded":7303,"Ġpractical":7304,"Ġmessenger":7305,"Ġrules":7306,"Ġbenefactor":7307,"Ġswimming":7308,"Ġvexation":7309,"particularly":7310,"Ġsaddle":7311,"Ġtrademark":7312,"Ġperplexity":7313,"Ġuniversal":7314,"Carthy":7315,"ĠCourt":7316,"Ġmajestic":7317,"Ġbranches":7318,"elkilt":7319,".,":7320,"94":7321,"Bingley":7322,"Eng":7323,"Our":7324,"front":7325,"hill":7326,"houses":7327,"lest":7328,"ram":7329,"ugh":7330,"upp":7331,"vest":7332,"warks":7333,"Ã¯":7334,"Ġz":7335,"iners":7336,"inister":7337,"render":7338,"erity":7339,"Ġmach":7340,"Ġfence":7341,"Ġfoe":7342,"Ġfaster":7343,"Ġcitizen":7344,"Ġhom":7345,"Ġdaily":7346,"Ġheap":7347,"Ġincomprehensible":7348,"leave":7349,"Ġlest":7350,"Ġlord":7351,"immediately":7352,"Ġren":7353,"Ġrever":7354,"iron":7355,"urb":7356,"Ġantic":7357,"ĠSA":7358,"Ġdeaf":7359,"tov":7360,"ulted":7361,"Ġrude":7362,"Ġleviathan":7363,"ĠCl":7364,"Ġunw":7365,"ĠLouis":7366,"Ġprolong":7367,"near":7368,"Ġsmiles":7369,"uded":7370,"ĠOther":7371,"Ġbride":7372,"Ġpeep":7373,"Ġpartly":7374,"ints":7375,"Ġchain":7376,"orders":7377,"Ġexped":7378,"Ġscound":7379,"Ġharness":7380,"Ġragged":7381,"Ġopinions":7382,"Ġtrade":7383,"Ġtramp":7384,"Ġaccur":7385,"Ġaccused":7386,"ĠVery":7387,"Ġapplied":7388,"Ġteach":7389,"ension":7390,"Ġsideways":7391,"Ġwinds":7392,"Ġcapacity":7393,"Ġsecre":7394,"Ġswung":7395,"Ġresting":7396,"Ġrestored":7397,"mperors":7398,"Ġ10":7399,"remained":7400,"remember":7401,"ouncing":7402,"Ġassume":7403,"ĠOnce":7404,"Ġpersonally":7405,"understood":7406,"year":7407,"Ġjob":7408,"aggage":7409,"Ġpurcha":7410,"Ġpainfully":7411,"Ġdisposed":7412,"Ġestates":7413,"Soon":7414,"Ġveh":7415,"Thus":7416,"Ġsenseless":7417,"happened":7418,"Ġhaste":7419,"Still":7420,"Ġglasses":7421,"seeing":7422,"Ġpaying":7423,"Ġmountain":7424,"mendous":7425,"Ġconcealed":7426,"feelings":7427,"Ġcouncil":7428,"Ġdelicacy":7429,"believe":7430,"Ġassistant":7431,"Ġpaces":7432,"Ġrequire":7433,"Ġtavern":7434,"ĠJustine":7435,"Ġventured":7436,"Ġfrequent":7437,"Ġfeeble":7438,"Ġcarpenter":7439,"officer":7440,"Ġgaily":7441,"Ġcolumns":7442,"Ġfierce":7443,"Ġamazement":7444,"ĠDaniel":7445,"Ġfortunate":7446,"yrother":7447,"ĠBoguchÃ¡rovo":7448,"sacrif":7449,"Ġanticip":7450,"General":7451,"Monseigneur":7452,"RO":7453,"Would":7454,"_.âĢĿ":7455,"ax":7456,"cer":7457,"cence":7458,"fell":7459,"ga":7460,"gutenberg":7461,"hole":7462,"iably":7463,"mat":7464,"mid":7465,"mate":7466,"oa":7467,"pir":7468,"princess":7469,"rained":7470,"sight":7471,"times":7472,"ĠÂ£":7473,"Ġax":7474,"Ġaide":7475,"inations":7476,"reem":7477,"Ġbay":7478,"Ġbla":7479,"Ġmixed":7480,"Ġfow":7481,"Ġfel":7482,"oration":7483,"athed":7484,"ators":7485,"Ġna":7486,"omon":7487,"uting":7488,"alÃº":7489,"alian":7490,"Ġangel":7491,"Ġseizing":7492,"ĠMill":7493,"ĠHim":7494,"alles":7495,"pel":7496,"ĠSpan":7497,"toe":7498,"Ġupright":7499,"lfare":7500,"estrade":7501,"Ġvalley":7502,"ounding":7503,"ĠWhether":7504,"ĠDolgorÃºkov":7505,"Ġjew":7506,"ieved":7507,"aud":7508,"ĠRuc":7509,"Ġprem":7510,"Ġdownstairs":7511,"neigh":7512,"Ġremote":7513,"Ġboot":7514,"shch":7515,"shine":7516,"Ġmustache":7517,"Ġcomposed":7518,"Ġours":7519,"Ġperformed":7520,"def":7521,"ording":7522,"Ġflames":7523,"Ġrare":7524,"Ġwanting":7525,"iculous":7526,"Ġdrag":7527,"Ġoccasions":7528,"Ġaffect":7529,"iality":7530,"Ġguilt":7531,"Ġ17":7532,"actory":7533,"Ġcurtain":7534,"Ġcares":7535,"Ġtrack":7536,"Ġinsignific":7537,"Ġinches":7538,"Ġreasonable":7539,"locked":7540,"Ġpurse":7541,"Ġmilk":7542,"Ġkissing":7543,"Ġvariety":7544,"Ġpriest":7545,"Ġcollar":7546,"angled":7547,"Ġplanks":7548,"Ġmember":7549,"Ġoblig":7550,"expressed":7551,"prot":7552,"Ġvaluable":7553,"Ġexamine":7554,"Ġviolently":7555,"Ġenjoyment":7556,"Ġlimbs":7557,"Ġpitch":7558,"Ġacquaintances":7559,"Ġpacing":7560,"ĠNorth":7561,"delight":7562,"Ġintroduced":7563,"close":7564,"Ġbecomes":7565,"ĠPolish":7566,"commander":7567,"Ġelderly":7568,"Quite":7569,"Ġsleeve":7570,"ĠAmerican":7571,"Ġcomparison":7572,"Ġseamen":7573,"uzm":7574,"oubtedly":7575,"ĠBourgh":7576,"Certainly":7577,"ED":7578,"Lady":7579,"Sir":7580,"Was":7581,"Whale":7582,"Wemmick":7583,"bound":7584,"battle":7585,"bacc":7586,"each":7587,"gust":7588,"hip":7589,"iber":7590,"luck":7591,"mil":7592,"sitting":7593,"ties":7594,"Ġtid":7595,"Ġawe":7596,"Ġwoe":7597,"received":7598,"Ġowing":7599,"ouched":7600,"Ġbust":7601,"itself":7602,"Ġfer":7603,"Ġhook":7604,"Ġhull":7605,"oring":7606,"leg":7607,"Ġhare":7608,"omach":7609,"Ġthread":7610,"Ġstates":7611,"ribly":7612,"Ġanguish":7613,"essalles":7614,"Ġmeat":7615,"ĠAgain":7616,"amm":7617,"ĠHenry":7618,"raction":7619,"ĠSol":7620,"ĠSaw":7621,"henomen":7622,"Ġratt":7623,"Ġvengeance":7624,"Ġnovel":7625,"ĠDer":7626,"Ġunited":7627,"Ġamused":7628,"ĠLa":7629,"next":7630,"begin":7631,"Ġchose":7632,"Ġbrows":7633,"former":7634,"Ġparting":7635,"shar":7636,"Ġcomple":7637,"Ġcomply":7638,"noticed":7639,"text":7640,"Ġhappily":7641,"ubble":7642,"Ġtrous":7643,"comfort":7644,"exam":7645,"expect":7646,"conce":7647,"ĠVengeance":7648,"Ġsubtle":7649,"Ġswept":7650,"possib":7651,"licity":7652,"Ġwarning":7653,"Ġinterf":7654,"plan":7655,"regular":7656,"Ġmonarch":7657,"Ġexpectations":7658,"Ġnorth":7659,"cription":7660,"Ġribb":7661,"duced":7662,"Ġshortly":7663,"uffled":7664,"Ġsurve":7665,"Ġdrift":7666,"Ġburden":7667,"Ġdefect":7668,"Ġjoyfully":7669,"Ġsubjects":7670,"Ġoccupation":7671,"Ġattacked":7672,"Ġgenerous":7673,"speaking":7674,"Ġsalt":7675,"presented":7676,"Ġtravell":7677,"Ġmarshal":7678,"advantage":7679,"Ġattentions":7680,"Ġdisappointment":7681,"Ġinclination":7682,"Ġstroke":7683,"Ġimpatience":7684,"Ġtempor":7685,"Ġprincipal":7686,"children":7687,"Ġpraise":7688,"Ġbattalion":7689,"Ġnarrative":7690,"Ġnumerous":7691,"acquaintance":7692,"mosphere":7693,"Ġecst":7694,"ĠGargery":7695,"Ã¯ve":7696,"Alex":7697,"Copyright":7698,"Darcy":7699,"First":7700,"Give":7701,"Had":7702,"Hurrah":7703,"IN":7704,"[_":7705,"breat":7706,"dain":7707,"doubt":7708,"eep":7709,"lour":7710,"lict":7711,"nut":7712,"pain":7713,"rison":7714,"uit":7715,"ugg":7716,"vent":7717,"wish":7718,"yn":7719,"Ġach":7720,"Ġsinking":7721,"rec":7722,"erate":7723,"itors":7724,"Ġmult":7725,"Ġmental":7726,"Ġtobacc":7727,"Ġnumbers":7728,"Ġlake":7729,"Ġbeer":7730,"Ġbeings":7731,"utter":7732,"ids":7733,"stud":7734,"separ":7735,"Ġreleased":7736,"Ġsaber":7737,"cture":7738,"teroom":7739,"Ġseize":7740,"ĠSay":7741,"ĠBarsad":7742,"emember":7743,"Ġvest":7744,"usal":7745,"Ġknoll":7746,"liked":7747,"agers":7748,"oped":7749,"Ġfacing":7750,"Ġqualities":7751,"Ġgod":7752,"Ġgover":7753,"ĠEh":7754,"ĠEmp":7755,"Ġtwit":7756,"Ġdisagreeable":7757,"Ġdisgrace":7758,"Ġremove":7759,"Ġolder":7760,"forth":7761,"Ġpeop":7762,"Ġheadquarters":7763,"omething":7764,"Ġreputation":7765,"Ġperceive":7766,"Ġstillness":7767,"Ġimpulse":7768,"Ġdesir":7769,"Ġcommission":7770,"Ġflung":7771,"Ġcloth":7772,"ĠVict":7773,"Ġdoorway":7774,"Ġcaps":7775,"Ġheartily":7776,"ĠThou":7777,"prof":7778,"Ġdisclo":7779,"Ġsignal":7780,"doing":7781,"Ġpursue":7782,"Ġpretended":7783,"william":7784,"Ġenemies":7785,"Ġbenevol":7786,"Ġchairs":7787,"asket":7788,"Ġarticles":7789,"everyone":7790,"Ġpropri":7791,"accom":7792,"Ġballroom":7793,"Ġgloves":7794,"Ġ1894":7795,"Ġsoftened":7796,"changed":7797,"ĠLadyship":7798,"Ġannounce":7799,"Ġviolence":7800,"Ġsolemnly":7801,"itzwilliam":7802,"Ġlabor":7803,"achelor":7804,"Ġventure":7805,"Ġpassionate":7806,"Ġrepresented":7807,"Ġlargest":7808,"Ġmuskets":7809,"ĠZherkÃ³v":7810,"Ġinevitable":7811,"Ġtriumphant":7812,"Ġpoliteness":7813,"Ġcorpse":7814,"straight":7815,"Ġfavorite":7816,"ĠIlyÃŃn":7817,"histor":7818,"ĠArchive":7819,"Ġlouder":7820,"Ġintellectual":7821,"Ġhitherto":7822,"Ġarrested":7823,"Ġinstrument":7824,"Ġmingled":7825,"Ġautumn":7826,"Ġgigantic":7827,"ĠMcCarthy":7828,"Ġcorridor":7829,"ĠnaÃ¯ve":7830,":--":7831,"Fish":7832,"Le":7833,"Man":7834,"Mamma":7835,"]]":7836,"bra":7837,"cham":7838,"crowd":7839,"fact":7840,"given":7841,"husband":7842,"iarly":7843,"len":7844,"nib":7845,"ober":7846,"ple":7847,"purp":7848,"piece":7849,"simp":7850,"watch":7851,"Ã¶":7852,"Ġaven":7853,"Ġserene":7854,"ednes":7855,"Ġbowing":7856,"esp":7857,"Ġhell":7858,"Ġpos":7859,"Ġpave":7860,"Ġpowder":7861,"Ġhay":7862,"Ġnon":7863,"icule":7864,"Ġge":7865,"Ġug":7866,"Ġsall":7867,"Ġsacred":7868,"Ġant":7869,"ctober":7870,"illing":7871,"ĠHa":7872,"ĠPacific":7873,"ĠSeveral":7874,"Ġdemon":7875,"Ġconject":7876,"Ġrushing":7877,"Ġexhib":7878,"ustri":7879,"usse":7880,"ourse":7881,"living":7882,"apable":7883,"ĠCo":7884,"Ġunreason":7885,"Ġjet":7886,"Ġprefer":7887,"acon":7888,"Ġdisorder":7889,"Ġshouldn":7890,"Ġboast":7891,"short":7892,"force":7893,"dear":7894,"dead":7895,"Ġscared":7896,"Ġretorted":7897,"Ġflow":7898,"ĠYoung":7899,"clothes":7900,"amped":7901,"Ġsupply":7902,"Ġconfined":7903,"Ġrestless":7904,"Ġrestrain":7905,"licable":7906,"Ġchildish":7907,"Ġchildhood":7908,"Ġterm":7909,"Ġcertainty":7910,"Ġsmaller":7911,"Ġexpressing":7912,"regiment":7913,"Ġrecent":7914,"Ġlessons":7915,"bridge":7916,"ĠForster":7917,"Ġrelate":7918,"proper":7919,"utenant":7920,"Ġadmired":7921,"voc":7922,"Ġdepths":7923,"Ġsleepy":7924,"ĠAllen":7925,"Ġprompt":7926,"Ġlanding":7927,"Ġfloating":7928,"Ġrespectable":7929,"running":7930,"Doctor":7931,"Ġcollection":7932,"Ġsenses":7933,"chance":7934,"Ġanxiously":7935,"Ġhastened":7936,"Ġprayed":7937,"Ġwarmth":7938,"oluntary":7939,"Ġinquiringly":7940,"added":7941,"Ġbelonging":7942,"Ġannoy":7943,"Ġmasses":7944,"Ġdimly":7945,"Ġfunny":7946,"Ġtravelling":7947,"Ġwhispering":7948,"talking":7949,"Ġendeavour":7950,"Ġlodge":7951,"Ġinclined":7952,"Ġearnestly":7953,"Ġtroubles":7954,"Ġignorance":7955,"hardly":7956,"Ġpolitical":7957,"Ġtranquil":7958,"Ġsuspended":7959,"eptember":7960,"dinner":7961,"Ġarguments":7962,"Ġexchanged":7963,"returned":7964,"Ġpreparation":7965,"Ġmourn":7966,"Ġrelieved":7967,"Ġdrowned":7968,"Ġinevitability":7969,"ĠArakchÃ©ev":7970,"Ġskeleton":7971,"recogn":7972,"village":7973,"Ġstyle":7974,"ĠRucastle":7975,"ednesday":7976,"BolkÃ³nski":7977,"Besides":7978,"civ":7979,"fashion":7980,"gun":7981,"gaz":7982,"mark":7983,"ns":7984,"posed":7985,"rise":7986,"tom":7987,"tro":7988,"tled":7989,"wounded":7990,"Ġze":7991,"hear":7992,"Ġsan":7993,"itate":7994,"Ġhounds":7995,"oral":7996,"Ġdate":7997,"Ġdried":7998,"Ġhelm":7999,"Ġincluded":8000,"Ġpip":8001,"Ġhated":8002,"Ġnap":8003,"uttering":8004,"idable":8005,"icious":8006,"Ġgru":8007,"Ġep":8008,"Ġyonder":8009,"Ġyawn":8010,"Ġashes":8011,"Ġasser":8012,"urous":8013,"Ġstomach":8014,"Ġattain":8015,"rive":8016,"ĠTar":8017,"ĠTurn":8018,"ĠMil":8019,"keep":8020,"ammed":8021,"ĠPapa":8022,"peculiar":8023,"thou":8024,"ĠBoth":8025,"Ġdeceived":8026,"ulating":8027,"unyÃ¡":8028,"isten":8029,"Ġwhence":8030,"lac":8031,"Ġunseen":8032,"Ġarise":8033,"resses":8034,"ieu":8035,"ĠLife":8036,"otherwise":8037,"ĠEmperors":8038,"ĠRe":8039,"issed":8040,"shout":8041,"Ġcomposure":8042,"Ġplate":8043,"Ġscorn":8044,"Ġconsult":8045,"cloth":8046,"Ġinstances":8047,"Ġdrago":8048,"Ġswinging":8049,"Ġfollows":8050,"Ġfinds":8051,"Ġadvised":8052,"Ġstepping":8053,"Ġalongside":8054,"Ġdecis":8055,"Ġlesson":8056,"Ġcareer":8057,"Ġmisfortunes":8058,"However":8059,"Ġobserv":8060,"aggoo":8061,"Ġvillages":8062,"Ġeasier":8063,"engers":8064,"handkerchief":8065,"Ġburnt":8066,"knife":8067,"Ġtremendous":8068,"ĠWithout":8069,"Ġanimation":8070,"Ġencourage":8071,"Ġfastened":8072,"Ġwax":8073,"Ġhills":8074,"Ġscenes":8075,"countess":8076,"ĠXVIII":8077,"turning":8078,"Ġdimin":8079,"Ġtransferred":8080,"thinking":8081,"Ġblessing":8082,"Ġslip":8083,"considered":8084,"Ġpetition":8085,"Ġfaithful":8086,"Ġinnumerable":8087,"Ġpatience":8088,"Ġhideous":8089,"Ġcarpet":8090,"amsa":8091,"Ġvicomte":8092,"._]]":8093,"Ġmotive":8094,"condition":8095,"Ġdebts":8096,"Ġbased":8097,"Ġintentions":8098,"Ġsleeves":8099,"Ġemerged":8100,"oliday":8101,"ĠHarper":8102,"Ġshrugged":8103,"Ġearlier":8104,"Ġthoroughly":8105,"Ġrubbing":8106,"Bennet":8107,"Ġflukes":8108,"intellig":8109,"ĠSolomon":8110,"Ġtobacco":8111,"unyÃ¡sha":8112,"About":8113,"SE":8114,"Sherlock":8115,"VasÃŃli":8116,"Wait":8117,"cision":8118,"eight":8119,"fright":8120,"kiff":8121,"lady":8122,"lifted":8123,"mere":8124,"mÃ³lo":8125,"ok":8126,"pat":8127,"sit":8128,"sun":8129,"sign":8130,"vÃ¡r":8131,"wy":8132,"whales":8133,"Ãł":8134,"Ġawhile":8135,"inous":8136,"inction":8137,"Ġwretch":8138,"Ġbrew":8139,"itect":8140,"onstr":8141,"Ġfog":8142,"Ġfolk":8143,"Ġcig":8144,"Ġcared":8145,"Ġtoil":8146,"llable":8147,"asy":8148,"ases":8149,"Ġpup":8150,"Ġnamed":8151,"Ġlux":8152,"Ġbehold":8153,"otions":8154,"ider":8155,"lyÃ¡n":8156,"Ġwasted":8157,"Ġreign":8158,"alt":8159,"urches":8160,"Ġstories":8161,"Ġanch":8162,"ĠMany":8163,"Ġsuspect":8164,"Ġdece":8165,"Ġkings":8166,"emy":8167,"ersed":8168,"olst":8169,"eled":8170,"liest":8171,"Ġweeping":8172,"Ġwelfare":8173,"Ġthereby":8174,"umes":8175,"ĠCam":8176,"ĠCape":8177,"orting":8178,"laugh":8179,"Ġtheirs":8180,"ĠFreem":8181,"Ġgoss":8182,"ĠRoy":8183,"Ġprey":8184,"Ġprodig":8185,"Ġcoinc":8186,"Ġdislike":8187,"Ġdissatisfied":8188,"became":8189,"ovember":8190,"renched":8191,"Ġbacks":8192,"Ġexpense":8193,"Ġglow":8194,"Ġglances":8195,"Ġcontents":8196,"ĠKir":8197,"Ġpassages":8198,"Ġmostly":8199,"Ġflame":8200,"getting":8201,"Ġendured":8202,"cold":8203,"super":8204,"Ġmoist":8205,"Ġsilk":8206,"Ġconfirmed":8207,"Ġsubs":8208,"Ġchanges":8209,"Ġrefund":8210,"Ġsmallest":8211,"Ġcommands":8212,"Ġ12":8213,"iana":8214,"Ġinvar":8215,"grad":8216,"regard":8217,"Ġhelpless":8218,"ĠHertfordshire":8219,"Ġdecide":8220,"Ġdecision":8221,"prep":8222,"Ġrigging":8223,"Ġbattlefield":8224,"worn":8225,"worthy":8226,"Ġexplaining":8227,"Ġdispositions":8228,"Ġinquire":8229,"Ġcreated":8230,"Ġmadness":8231,"Ġsixteen":8232,"ĠWhich":8233,"Ġoccasional":8234,"Ġreplying":8235,"Ġdresses":8236,"interrupt":8237,"Ġsolid":8238,"Without":8239,"trÃ¡d":8240,"express":8241,"Ġridiculous":8242,"Ġsharply":8243,"Ġdesert":8244,"Ġexamining":8245,"ĠAlexÃ©evich":8246,"Ġmedic":8247,"confidence":8248,"Ġdeliver":8249,"Ġapartment":8250,"ructed":8251,"Ġpunch":8252,"Ġreview":8253,"Ġstirred":8254,"Ġstruggled":8255,"concern":8256,"Ġsignificant":8257,"gentlemen":8258,"Ġidle":8259,"Ġcustomary":8260,"Ġbodily":8261,"Ġdistinguish":8262,"Ġmurdered":8263,"Ġwandering":8264,"Ġbulk":8265,"Ġswaying":8266,"Ġreserved":8267,"Ġhospital":8268,"ILOR":8269,"Ġprecisely":8270,"Ġproposal":8271,"Ġconcentrated":8272,"Ġscheme":8273,"school":8274,"stopped":8275,"influ":8276,"Ġtranquillity":8277,"ĠSAILOR":8278,"Ġsecrecy":8279,"ĠSawyer":8280,"ĠVictor":8281,"kiffins":8282,"mÃ³lov":8283,"trÃ¡dnoe":8284,";âĢĿ":8285,"AL":8286,"Eh":8287,"Ger":8288,"Hall":8289,"Old":8290,"aus":8291,"bar":8292,"bone":8293,"captain":8294,"dress":8295,"eur":8296,"elect":8297,"fixed":8298,"hl":8299,"mal":8300,"money":8301,"mouth":8302,"moved":8303,"net":8304,"oard":8305,"prin":8306,"rs":8307,"rim":8308,"tured":8309,"wonder":8310,"Ã½":8311,"incl":8312,"Ġsen":8313,"Ġsons":8314,"requ":8315,"really":8316,"haling":8317,"eries":8318,"erted":8319,"Ġbon":8320,"Ġbind":8321,"Ġbaggage":8322,"Ġcult":8323,"Ġtooth":8324,"Ġtoler":8325,"Ġdre":8326,"leet":8327,"Ġlap":8328,"Ġlane":8329,"Ġbewild":8330,"Ġgoose":8331,"irgin":8332,"Ġanteroom":8333,"Ġmead":8334,"Ġmeal":8335,"ĠAg":8336,"ĠHare":8337,"peak":8338,"iliar":8339,"Ġsheep":8340,"thur":8341,"Ġconqu":8342,"emÃ«":8343,"ĠWind":8344,"Ġlibrary":8345,"ĠDaggoo":8346,"ittered":8347,"ortal":8348,"Ġaroused":8349,"ĠFin":8350,"ĠLicense":8351,"meaning":8352,"ÃŃts":8353,"Ġbrick":8354,"Ġgrou":8355,"Ġrepose":8356,"Ġblubber":8357,"Ġexplo":8358,"Ġglimp":8359,"Ġprice":8360,"Ã©y":8361,"Ġharder":8362,"Ġflower":8363,"Ġgets":8364,"Ġserving":8365,"Ãºtin":8366,"Ġhousekeeper":8367,"Ġconfirm":8368,"Ġsubsequ":8369,"Ġswore":8370,"pocket":8371,"Ġchecked":8372,"ultaneously":8373,"Ġbrood":8374,"grown":8375,"Ġinfer":8376,"ĠWeyrother":8377,"Ġtravel":8378,"Ġreasoning":8379,"Ġsufficiently":8380,"Ġdischar":8381,"ĠUpon":8382,"Ġcrowds":8383,"Ġcoldly":8384,"eyed":8385,"object":8386,"office":8387,"compass":8388,"Ġsympt":8389,"Ġdreaded":8390,"Ġquarrel":8391,"Ġpeaceful":8392,"Ġmemories":8393,"extra":8394,"Ġadjutants":8395,"olunte":8396,"Ġhunted":8397,"Ġinquiring":8398,"Ġeagerness":8399,"Ġgalloping":8400,"Ġfuneral":8401,"Ġcreation":8402,"Ġnegro":8403,"***":8404,"writing":8405,"Ġdisappointed":8406,"understanding":8407,"ENT":8408,"ĠTurk":8409,"Ġmoonlight":8410,"Ġmessage":8411,"Ġthreatened":8412,"Ġstationed":8413,"Ġlucky":8414,"Ġderived":8415,"Ġperformance":8416,"answer":8417,"Ġpopular":8418,"Ġfeverish":8419,"Ġavail":8420,"Ġadventure":8421,"Ġindependent":8422,"ĠScot":8423,"Ġceremony":8424,"Ġcondemned":8425,"Ġborzois":8426,"Ġbarbar":8427,"ÃŃlna":8428,"ĠGeneva":8429,"Ġphrase":8430,"Ġbundle":8431,"Ġassented":8432,"Ġromantic":8433,"Ġcriminal":8434,"Ġpeoples":8435,"emÃ«n":8436,"Ġglimpse":8437,"Ãºtino":8438,"BER":8439,"De":8440,"More":8441,"Pl":8442,"Upon":8443,"ault":8444,"bright":8445,"bott":8446,"dem":8447,"dread":8448,"lve":8449,"lass":8450,"mur":8451,"pent":8452,"rich":8453,"wling":8454,"ys":8455,"Ġafore":8456,"insh":8457,"Ġwaving":8458,"real":8459,"rete":8460,"haw":8461,"itle":8462,"itations":8463,"Ġmale":8464,"Ġdat":8465,"asper":8466,"artop":8467,"lets":8468,"Ġpool":8469,"Ġhailed":8470,"Ġner":8471,"Ġbears":8472,"utable":8473,"sect":8474,"rolled":8475,"ĠTw":8476,"terrible":8477,"andy":8478,"ameless":8479,"ĠHold":8480,"ĠHurst":8481,"ĠPre":8482,"ĠPray":8483,"ĠSerene":8484,"ĠBl":8485,"ĠBlack":8486,"Ġshroud":8487,"Ġrot":8488,"estab":8489,"usually":8490,"oler":8491,"ĠWar":8492,"Ġkneel":8493,"Ġmane":8494,"lips":8495,"umption":8496,"ĠDutch":8497,"ĠDessalles":8498,"Ġquality":8499,"ĠLavrÃºshka":8500,"Ġhandle":8501,"ĠRy":8502,"Ġpreserve":8503,"Ġprosper":8504,"Ġponder":8505,"become":8506,"berry":8507,"ends":8508,"Ġchurches":8509,"ĠOctober":8510,"ĠOtrÃ¡dnoe":8511,"ĠItalian":8512,"Ġthoughtful":8513,"Ġgrain":8514,"shad":8515,"Ġperf":8516,"teenth":8517,"ĠKuzm":8518,"Ġpassions":8519,"Ġpassenger":8520,"Ġattachment":8521,"ival":8522,"Ġtrot":8523,"Ġclay":8524,"Ġapplication":8525,"Ġnewsp":8526,"Ġendless":8527,"Ġregiments":8528,"Ġregularly":8529,"Ġsecured":8530,"Ġchanging":8531,"Ġpresents":8532,"Ġguine":8533,"Ġstrangers":8534,"Ġactual":8535,"keness":8536,"grand":8537,"Ġsincerely":8538,"Ġbestowed":8539,"Ġincapable":8540,"prov":8541,"dued":8542,"longer":8543,"Ġfootmen":8544,"pending":8545,"Ġfury":8546,"Ġlanded":8547,"Ġmerc":8548,"Ġmerit":8549,"Ġdefend":8550,"Ġjoyous":8551,"Ġgrounds":8552,"Ġbrightly":8553,"Ġvelve":8554,"Ġproportion":8555,"Ġconsiderations":8556,"toned":8557,"Ġsatisfy":8558,"Ġhatred":8559,"Ġhistoric":8560,"Ġprayers":8561,"places":8562,"Ġfairly":8563,"Ġlowering":8564,"Ġexamination":8565,"ĠXVII":8566,"Ġtenderly":8567,"Ġbells":8568,"ĠXIX":8569,"Ġincreasing":8570,"ĠAustria":8571,"Ġrubbed":8572,"Ġdeclare":8573,"Ġperpet":8574,"Ġslave":8575,"Ġarrangements":8576,"Ġaudible":8577,"Ġwhistling":8578,"Ġessence":8579,"Ġvexed":8580,"Ġswayed":8581,"ĠAmong":8582,"Ġwaistcoat":8583,"determ":8584,"broken":8585,"breakfast":8586,"Ġbreeze":8587,"Ġseventy":8588,"surprise":8589,"ĠPhilips":8590,"Ġcontradict":8591,"connected":8592,"Ġelegant":8593,"Ġprovisions":8594,"Ġapprehension":8595,"Ġleisure":8596,"ĠSquare":8597,"pillar":8598,"Ġverses":8599,"sacrifice":8600,"Ġtrousers":8601,"Ġgoverness":8602,"Ġpavement":8603,"Ġugly":8604,"lyÃ¡nin":8605,"ECT":8606,"Havisham":8607,"Long":8608,"Shall":8609,"Wickham":8610,"_,âĢĿ":8611,"bad":8612,"fro":8613,"few":8614,"prince":8615,"sens":8616,"tree":8617,"uonaparte":8618,"var":8619,"won":8620,"wanted":8621,"Ġ\"":8622,"Ġtables":8623,"hem":8624,"Ġwot":8625,"Ġwars":8626,"Ġwoke":8627,"Ġbol":8628,"itively":8629,"Ġcough":8630,"Ġcoward":8631,"Ġdaz":8632,"least":8633,"leberry":8634,"Ġpall":8635,"Ġpig":8636,"Ġpanting":8637,"Ġphenomen":8638,"Ġhaul":8639,"Ġlamps":8640,"imÃ³":8641,"icted":8642,"verted":8643,"aya":8644,"Ġwithdrew":8645,"Ġwhiteness":8646,"Ġforbid":8647,"ĠTr":8648,"ĠMinister":8649,"ĠAye":8650,"Ġshell":8651,"ĠSar":8652,"ĠBen":8653,"Ġshoe":8654,"ements":8655,"Ġexper":8656,"Ġexisted":8657,"Ġvi":8658,"Ġvap":8659,"ĠWest":8660,"umult":8661,"Their":8662,"Ġages":8663,"laid":8664,"Ġrosy":8665,"Ġjer":8666,"Ġjest":8667,"Ġamount":8668,"abled":8669,"ĠJune":8670,"herent":8671,"Ġoverboard":8672,"rubet":8673,"need":8674,"Ġdisdain":8675,"bery":8676,"ovel":8677,"Ġbliss":8678,"Ġexposed":8679,"Ġscr":8680,"Ġscore":8681,"Ġattending":8682,"Ġhappier":8683,"Ġconsist":8684,"ubs":8685,"Heading":8686,"Ġflowed":8687,"comed":8688,"Ġclum":8689,"Ġclergy":8690,"Ġtells":8691,"Ġappointment":8692,"clusion":8693,"Ġpleasing":8694,"coach":8695,"spread":8696,"spoke":8697,"Ġappeal":8698,"Ġwinding":8699,"khin":8700,"Ġchances":8701,"Ġbushes":8702,"Ġslender":8703,"Ġguide":8704,"Ġadvise":8705,"Ġkinds":8706,"Ġ13":8707,"Ġinval":8708,"enny":8709,"probably":8710,"aterpillar":8711,"Ġsunshine":8712,"Ġdevils":8713,"Ġdeprived":8714,"ĠUnder":8715,"ĠcalÃ¨":8716,"Ġseconds":8717,"Ġrespected":8718,"compan":8719,"Ġdreadfully":8720,"Ġcracked":8721,"Ġmentioning":8722,"Ġshark":8723,"Ġsecrets":8724,"Ġanimals":8725,"Ġhoping":8726,"Ġrecognised":8727,"settled":8728,"afterwards":8729,"ĠEnglishman":8730,"Ġdescription":8731,"Ġridden":8732,"justice":8733,"Ġprovin":8734,"drawing":8735,"Ġmedium":8736,"Ġprotected":8737,"Ġavoided":8738,"replied":8739,"ĠGermans":8740,"elebr":8741,"Ġverd":8742,"Ġcatching":8743,"Ġconducted":8744,"Ġadmirable":8745,"Ġconsequently":8746,"Ġimproved":8747,"Ġnodding":8748,"Ġmagnanim":8749,"Ġattendance":8750,"Ġboldly":8751,"Ġuneasiness":8752,"Ġyielded":8753,"Ġcontinual":8754,"sufficient":8755,"Ġbulwarks":8756,"dino":8757,"evolution":8758,"ĠIlyÃ¡":8759,"Ġfemale":8760,"Ġecho":8761,"Ġechoes":8762,"ĠSteelkilt":8763,"Ġlearning":8764,"Ġmanifest":8765,"Ġhammock":8766,"Ġintimacy":8767,"Ġmilitia":8768,"Ġpreceding":8769,"Ġplunged":8770,"Ġinvestig":8771,"ĠPrussia":8772,"Ġfruit":8773,"Ġmachine":8774,"Ġprolonged":8775,"imÃ³khin":8776,"rubetsk":8777,"AlpÃ¡tych":8778,"Bal":8779,"CE":8780,"Get":8781,"Once":8782,"Suddenly":8783,"bun":8784,"burn":8785,"fif":8786,"gent":8787,"iard":8788,"mad":8789,"nest":8790,"nel":8791,"pun":8792,"try":8793,"tÃº":8794,"ws":8795,"win":8796,"Ġtumb":8797,"heav":8798,"Ġaft":8799,"Ġslack":8800,"rease":8801,"restr":8802,"itness":8803,"Ġmission":8804,"Ġcelebr":8805,"escend":8806,"arming":8807,"Ġinconven":8808,"Ġloves":8809,"ĠIl":8810,"âĢĿ;":8811,"Ġbeard":8812,"uttered":8813,"Ġgroom":8814,"verty":8815,"etition":8816,"ales":8817,"ripp":8818,"ĠMak":8819,"illot":8820,"ĠSkiffins":8821,"ĠBet":8822,"Ġdevelo":8823,"Ġupset":8824,"nted":8825,"Ġleak":8826,"Ġorgan":8827,"Ġextingu":8828,"olent":8829,"inder":8830,"Ġknot":8831,"ĠChapter":8832,"lair":8833,"Ġunite":8834,"Ġroared":8835,"ĠFive":8836,"ĠFitzwilliam":8837,"Ġfeature":8838,"ĠEn":8839,"Ġadvert":8840,"Ġpoison":8841,"Ġdiss":8842,"Ġdisgust":8843,"arski":8844,"Ġblowing":8845,"Ġpercept":8846,"Ġhoisted":8847,"Ġspec":8848,"Ġresc":8849,"ization":8850,"Ġharsh":8851,"ĠStand":8852,"Ġmarble":8853,"Ġregion":8854,"Ġmob":8855,"Ġappearing":8856,"ceipt":8857,"oots":8858,"Ġinduce":8859,"Ġelbows":8860,"Ġawakened":8861,"Ġforecastle":8862,"Ġhumili":8863,"Ġrecently":8864,"pres":8865,"Ġcareless":8866,"ĠThrough":8867,"Ġirresist":8868,"Ġdiscern":8869,"Ġelsewhere":8870,"Ġsurv":8871,"naturally":8872,"econd":8873,"handed":8874,"Ġpainted":8875,"Ġengage":8876,"affection":8877,"Ġforming":8878,"Ġrespects":8879,"Ġartific":8880,"Ġgallery":8881,"Ġveil":8882,"chers":8883,"rinkled":8884,"Ġlegal":8885,"Ġfrightful":8886,"Ġparlour":8887,"Ġescort":8888,"placed":8889,"Ġelement":8890,"Ġrecognizing":8891,"Ġforgetting":8892,"Ġpausing":8893,"Ġwarmly":8894,"Ġdifficulties":8895,"Ġdeserved":8896,"minutes":8897,"rified":8898,"Ġcrept":8899,"Ġgrandeur":8900,"Ġuniforms":8901,"Ġdepends":8902,"Ġgravely":8903,"society":8904,"Ġauthorities":8905,"increas":8906,"Ġpacked":8907,"Ġpractice":8908,"Ġappreci":8909,"Ġconfessed":8910,"Ġsuspicious":8911,"Ġshrie":8912,"Ġrespond":8913,"Ġdistributed":8914,"Ġintroduce":8915,"Ġfishermen":8916,"Ġinjured":8917,"Ġaudience":8918,"Ġdrunken":8919,"Ġwhistle":8920,"Ġicons":8921,"Ġstatement":8922,"interested":8923,"ulsive":8924,"answered":8925,"ĠIvÃ¡novich":8926,"Ġwagons":8927,"Ġwrinkled":8928,"Ġwrinkles":8929,"Ġprocession":8930,"Ġstooped":8931,"Ġphilosophy":8932,"Ġweapon":8933,"Ġascended":8934,"Ġradiant":8935,"erences":8936,"Ġpronounced":8937,"movement":8938,"ĠGreenland":8939,"Ġadopted":8940,"Ġgravity":8941,"Ġlocated":8942,"Ġtiptoe":8943,"Ġestablishment":8944,"ĠDavout":8945,"beautiful":8946,"Ġhaunted":8947,"vÃ¡rdino":8948,"inshÃŃn":8949,"tÃºrov":8950,"AG":8951,"Ay":8952,"En":8953,"HÃ©lÃ¨ne":8954,"JECT":8955,"Kar":8956,"Stop":8957,"bod":8958,"bles":8959,"born":8960,"city":8961,"dge":8962,"div":8963,"fare":8964,"glo":8965,"lost":8966,"mount":8967,"mlin":8968,"smen":8969,"soul":8970,"tz":8971,"tons":8972,"viol":8973,"Ġtu":8974,"Ġtent":8975,"Ġtread":8976,"Ġtact":8977,"edall":8978,"Ġbisc":8979,"Ġmail":8980,"Ġfri":8981,"Ġfaded":8982,"Ġpul":8983,"uttle":8984,"Ġgard":8985,"Ġgale":8986,"sters":8987,"state":8988,"stretched":8989,"seem":8990,"Ġegg":8991,"Ġetern":8992,"Ġwaste":8993,"Ġthumb":8994,"Ġrese":8995,"Ġretained":8996,"aying":8997,"eting":8998,"alf":8999,"urious":9000,"urbed":9001,"Ġatmosphere":9002,"church":9003,"Ġherd":9004,"Ġsaving":9005,"ĠAbout":9006,"Ġsob":9007,"ĠPlease":9008,"ĠPRO":9009,"rap":9010,"ĠSav":9011,"ĠSamsa":9012,"ĠSemÃ«n":9013,"ĠBill":9014,"Ġdeceive":9015,"ppers":9016,"Ġconceive":9017,"ardly":9018,"usive":9019,"olen":9020,"olate":9021,"ĠWednesday":9022,"indeed":9023,"ĠNext":9024,"Ġabrupt":9025,"ĠCat":9026,"ĠCould":9027,"ĠCity":9028,"Ġaged":9029,"lace":9030,"Ġunnecessary":9031,"opinion":9032,"Ġanyway":9033,"Ã¡rov":9034,"Ġfeast":9035,"Ġnowhere":9036,"odge":9037,"ĠLestrade":9038,"ĠGUT":9039,"Ġtwink":9040,"Ġdisgu":9041,"Ġshared":9042,"Ġshaken":9043,"arshal":9044,"ĠOut":9045,"Ġgrant":9046,"Ġseeming":9047,"Ġthrong":9048,"Ġchapter":9049,"Ġchambers":9050,"soever":9051,"Ġspell":9052,"Ġcounting":9053,"Ġflood":9054,"Ġmarching":9055,"Ġapply":9056,"Ġwatery":9057,"ensity":9058,"ĠRostÃ³va":9059,"Ġsuppressed":9060,"Ġsupported":9061,"Ġclearing":9062,"versed":9063,"Ġswam":9064,"asonry":9065,"Ġrefuge":9066,"ials":9067,"Ġterrors":9068,"Ġadvantages":9069,"Ġexpressive":9070,"actly":9071,"author":9072,"azÃ¡n":9073,"remem":9074,"Ġdecor":9075,"ogen":9076,"Ġdetachment":9077,"Ġinsult":9078,"Ġincome":9079,"umped":9080,"Ġesaul":9081,"Ġoppressed":9082,"Ġeyeing":9083,"Ġrealize":9084,"Ġconvoy":9085,"Ġdoubtless":9086,"Ġpretend":9087,"Ġpolic":9088,"Ã¨re":9089,"Ġpropose":9090,"Ġtreacher":9091,"Ġmouths":9092,"Ġlifeless":9093,"Ġequip":9094,"glad":9095,"Ġbarrier":9096,"Ġeffects":9097,"Ġharpoons":9098,"ĠAusten":9099,"Any":9100,"Ġastern":9101,"distance":9102,"carried":9103,"carriage":9104,"Ġdeny":9105,"ĠGeorg":9106,"Ġdepended":9107,"Ġprivile":9108,"Ġunfold":9109,"Ġpalace":9110,"Ġdusty":9111,"Ġdivers":9112,"written":9113,"ENBER":9114,"Ġheroes":9115,"Ġkeys":9116,"married":9117,"Ġrejoined":9118,"rudence":9119,"corner":9120,"Ġdistributing":9121,"rÃ©mlin":9122,"Ġdisturb":9123,"Ġguessed":9124,"Ġblew":9125,"Ġtransport":9126,"Ġtrifle":9127,"Ġpolitely":9128,"ĠPlat":9129,"Ġpreparations":9130,"Ġconveyed":9131,"destro":9132,"ĠeBooks":9133,"Ġswallowed":9134,"Ġsnatched":9135,"Ġmeasured":9136,"Ġcongratulate":9137,"pretty":9138,"Ġreligion":9139,"Ġcritical":9140,"Ġpuzzled":9141,"sharp":9142,"Ġcompleted":9143,"civil":9144,"Ġpipes":9145,"Ġgossip":9146,"electronic":9147,"hlans":9148,"edallah":9149,"ĠPROJECT":9150,"ĠGUTENBER":9151,"ĠGUTENBERG":9152,"Even":9153,"Ha":9154,"IV":9155,"bable":9156,"bby":9157,"bird":9158,"cre":9159,"dam":9160,"fine":9161,"iot":9162,"iac":9163,"lings":9164,"lime":9165,"main":9166,"mov":9167,"oz":9168,"wall":9169,"Ġtar":9170,"Ġwaking":9171,"Ġsouth":9172,"hable":9173,"Ġbars":9174,"Ġbuck":9175,"Ġbald":9176,"Ġmoves":9177,"Ġcattle":9178,"Ġduel":9179,"Ġhears":9180,"Ġpuck":9181,"otograph":9182,"Ġthither":9183,"Ġretain":9184,"Ġstool":9185,"Ġstagg":9186,"ĠTer":9187,"Ġsell":9188,"ĠMag":9189,"ĠMouse":9190,"keeping":9191,"Ġsobbing":9192,"ĠPaul":9193,"ĠPoor":9194,"peace":9195,"ĠSeptember":9196,"ights":9197,"ĠBed":9198,"Ġshows":9199,"Ġcontained":9200,"Ġcontaining":9201,"Ġrattle":9202,"outs":9203,"Ġaltern":9204,"!âĢĿâĢĶ":9205,"ĠNovember":9206,"Ġabund":9207,"ĠClar":9208,"ĠCaterpillar":9209,"Ġje":9210,"ountered":9211,"acked":9212,"Ġprecaut":9213,"ĠJones":9214,"Ġsmoot":9215,"udding":9216,"Ġbegins":9217,"Ġrepent":9218,"Ġblown":9219,"Ġglided":9220,"Ġwherever":9221,"ĠKn":9222,"Ġintri":9223,"Ġflash":9224,"Ġflattered":9225,"Ġraft":9226,"attent":9227,"Ġthroughout":9228,"ĠVÃŃlna":9229,"Ġmarched":9230,"Ġcalls":9231,"cloud":9232,"Ġwrist":9233,"oyage":9234,"spring":9235,"suing":9236,"khtÃºrov":9237,"Ġsubmit":9238,"Ġstring":9239,"Ġguest":9240,"kenstein":9241,"Ġopenly":9242,"Ġforefinger":9243,"Ġsincere":9244,"Ġindef":9245,"Ġspeaker":9246,"Ġcrimes":9247,"idding":9248,"Ġinsens":9249,"prop":9250,"Ġhurrying":9251,"Ġextrem":9252,"boats":9253,"Ġdevotion":9254,"Ġillum":9255,"Ġservices":9256,"pendicul":9257,"Ġjoining":9258,"Ġapproval":9259,"Ġdriver":9260,"culiarly":9261,"Ġmistress":9262,"Ġesteem":9263,"easy":9264,"Ġangle":9265,"Ġrecover":9266,"Ġtorture":9267,"Ġearthly":9268,"Ġproperly":9269,"Ġwildly":9270,"pleased":9271,"arers":9272,"ĠChurch":9273,"Ġrapidity":9274,"Ġmuttering":9275,"Ġencountered":9276,"ĠArthur":9277,"Ġjudged":9278,"Ġconnections":9279,"Ġeighteen":9280,"Ġdetermine":9281,"ourier":9282,"Ġporter":9283,"ĠPÃ¡vlo":9284,"distingu":9285,"confident":9286,"Ġbursting":9287,"Ġeaten":9288,"Ġsolemnity":9289,"Ġwisdom":9290,"Ġmaids":9291,"Ġfamilies":9292,"riday":9293,"Ġpunish":9294,"uesday":9295,"Ġstirring":9296,"friends":9297,"Ġcommunicated":9298,"Ġdisappro":9299,"Ġspectacle":9300,"Ġbanks":9301,"reshold":9302,"Ġhunters":9303,"Ġarrangement":9304,"Ġwelcomed":9305,"Ġhesitating":9306,"toward":9307,"Ġfoam":9308,"Ġdebt":9309,"Ġunconsciously":9310,"Mademoiselle":9311,"Ġbullets":9312,"darkness":9313,"Ġcaution":9314,"Ġsoothing":9315,"Ġinfinitely":9316,"Ġenvy":9317,"Ġterrific":9318,"listened":9319,"Ġdeliberately":9320,"Really":9321,"Ġbetrayed":9322,"Ġcontrol":9323,"Ġeloqu":9324,"Ġacknowledged":9325,"Ġclasped":9326,"Ġscoundrel":9327,"alÃºga":9328,"Ġinsignificant":9329,"ĠTarÃºtino":9330,"Ġdreary":9331,"Ġgroups":9332,"ĠcalÃ¨che":9333,"illotine":9334,"Ġstaggered":9335,"Berg":9336,"Hold":9337,"Like":9338,"Sp":9339,"cart":9340,"dream":9341,"iate":9342,"kins":9343,"lines":9344,"pull":9345,"rising":9346,"sa":9347,"sn":9348,"sir":9349,"sford":9350,"tone":9351,"trying":9352,"vit":9353,"vast":9354,"witch":9355,"xim":9356,"Ġtur":9357,"inent":9358,"Ġsna":9359,"Ġsilly":9360,"Ġoar":9361,"Ġowe":9362,"hals":9363,"Ġbarn":9364,"Ġbuff":9365,"Ġmum":9366,"Ġmap":9367,"Ġmix":9368,"Ġfol":9369,"Ġfoul":9370,"Ġfasc":9371,"Ġcouch":9372,"Ġheaving":9373,"Ġpie":9374,"Ġphant":9375,"Ġlimp":9376,"owards":9377,"Ġghast":9378,"âĢĻ,":9379,"cember":9380,"Ġreass":9381,"Ġreconc":9382,"adet":9383,"Ġstor":9384,"Ġstove":9385,"riv":9386,"ĠTime":9387,"ands":9388,"Ġsex":9389,"Ġmend":9390,"ĠAf":9391,"ĠAnt":9392,"allow":9393,"ĠPr":9394,"raised":9395,"ilingly":9396,"thew":9397,"ĠBuonaparte":9398,"Ġshops":9399,"Ġrud":9400,"erson":9401,"antime":9402,"outhern":9403,"Ġleaf":9404,"Ġknitted":9405,"ourselves":9406,"Ġlikeness":9407,"istered":9408,"ĠNat":9409,"ĠNik":9410,"ĠChe":9411,"ĠCle":9412,"ĠCross":9413,"Ġunwilling":9414,"ĠFedallah":9415,"iev":9416,"Ġsport":9417,"Ã³rov":9418,"ĠGover":9419,"Ġtwisted":9420,"Ġpole":9421,"Ġcovering":9422,"across":9423,"Ġbranch":9424,"ĠIts":9425,"intention":9426,"intended":9427,"Ġbackward":9428,"Ġperish":9429,"Ġperished":9430,"Ġcontact":9431,"Ġimpressed":9432,"ĠKrÃ©mlin":9433,"ĠKalÃºga":9434,"Ġresour":9435,"ĠShevÃ¡rdino":9436,"Ġflowing":9437,"Ġrags":9438,"Ġkeel":9439,"Ġyoungest":9440,"exec":9441,"consequ":9442,"Ġmomentary":9443,"Ġmariners":9444,"Ġdistracted":9445,"Whatever":9446,"events":9447,"ĠAngel":9448,"racters":9449,"ĠTherefore":9450,"anyone":9451,"Ġreadiness":9452,"Ġexpressions":9453,"fear":9454,"Ġcurly":9455,"Ġcurse":9456,"grate":9457,"Ġdrooping":9458,"Ġwaiter":9459,"Ġkeeps":9460,"Ġtraces":9461,"Ġsentiment":9462,"ĠDoes":9463,"ĠDokhtÃºrov":9464,"cribe":9465,"Ġcondescend":9466,"Ġfalls":9467,"burst":9468,"disc":9469,"ugged":9470,"knowing":9471,"Ġrepeatedly":9472,"Ġrespectful":9473,"observed":9474,"Ġsumm":9475,"Ġacquired":9476,"company":9477,"Ġdifferently":9478,"Ġregarding":9479,"Ġbreathe":9480,"fectly":9481,"Ġcharacteristic":9482,"Ã¡vra":9483,"ribute":9484,"Starbuck":9485,"blue":9486,"Ġdesires":9487,"countenance":9488,"afraid":9489,"Ġlimited":9490,"Ġthyself":9491,"Ġhealthy":9492,"Ġsimultaneously":9493,"Ġpunishment":9494,"Ġattempted":9495,"Ġvirtues":9496,"Ġsuperst":9497,"ĠIndeed":9498,"second":9499,"Ġbandaged":9500,"rudent":9501,"ĠShinshÃŃn":9502,"Ġcruelty":9503,"Ġvicinity":9504,"Ġarranging":9505,"Ġbattles":9506,"Ġfiery":9507,"Ġhesitated":9508,"service":9509,"continually":9510,"Ġstretch":9511,"Ġ1805":9512,"ispens":9513,"ĠAmerica":9514,"silent":9515,"Ġconvey":9516,"Ã¡sim":9517,"Ġrelieve":9518,"Ġbattalions":9519,"Ġloung":9520,"ĠBoar":9521,"build":9522,"beside":9523,"Ġpilgrim":9524,"Ġresemblance":9525,"Ġtendency":9526,"Ġlearnt":9527,"Ġpleaded":9528,"Ġvolume":9529,"Ġadditional":9530,"Ġcalculated":9531,"Ġsearching":9532,"ĠSea":9533,"Ġjealousy":9534,"figure":9535,"Ġtype":9536,"Ġdelir":9537,"Ġenvelope":9538,"Ġdwelling":9539,"girl":9540,"Ġcampfires":9541,"harpoone":9542,"chamber":9543,"ĠSarah":9544,"BalashÃ«v":9545,"Both":9546,"Emp":9547,"Poor":9548,"Since":9549,"bled":9550,"ca":9551,"dog":9552,"dÃ¡n":9553,"gings":9554,"iem":9555,"jut":9556,"jack":9557,"mic":9558,"mel":9559,"paper":9560,"slight":9561,"soft":9562,"vict":9563,"Ġ-":9564,"hearing":9565,"hetic":9566,"Ġtheat":9567,"Ġsly":9568,"rer":9569,"erget":9570,"outer":9571,"Ġblend":9572,"Ġbachelor":9573,"Ġmould":9574,"enemy":9575,"oning":9576,"Ġfil":9577,"Ġtoes":9578,"Ġtolerable":9579,"Ġdaring":9580,"around":9581,"Ġinit":9582,"Ġinher":9583,"ange":9584,"Ġpark":9585,"Ġprow":9586,"Ġpush":9587,"Ġhail":9588,"Ġbeach":9589,"icip":9590,"Ġwash":9591,"Ġwashing":9592,"velled":9593,"Ġreduced":9594,"rope":9595,"Ġstubb":9596,"riel":9597,"Ġselected":9598,"ĠMum":9599,"ĠHor":9600,"thrown":9601,"Ġdeemed":9602,"Ġupward":9603,"Ġupwards":9604,"Ġvous":9605,"Ġvile":9606,"Ġvener":9607,"ĠWil":9608,"ĠWhales":9609,"Ġalt":9610,"Ġoutward":9611,"ument":9612,"hanging":9613,"Ġunion":9614,"Ġunjust":9615,"Ġunaccount":9616,"Ġargu":9617,"agon":9618,"agan":9619,"agged":9620,"Ġjolly":9621,"igning":9622,"ĠLake":9623,"ĠLodge":9624,"ĠGr":9625,"ĠRad":9626,"Ġpretext":9627,"Ġoffering":9628,"Ġcanv":9629,"Ġcannib":9630,"Ġoverfl":9631,"Ġoverwhe":9632,"aces":9633,"accept":9634,"Ġenerget":9635,"arson":9636,"ĠOR":9637,"Ġundertaking":9638,"intend":9639,"weak":9640,"weather":9641,"Ġbackwards":9642,"Ġblushing":9643,"Ġpermitted":9644,"Ġchaise":9645,"Ġglim":9646,"Ġcontented":9647,"Ġcounted":9648,"--âĢľ":9649,"Ġplacing":9650,"Heaven":9651,"Ġrarely":9652,"Ġclung":9653,"Ġapolog":9654,"ĠInn":9655,"Ġdistressed":9656,"Ġwrit":9657,"Ġcarved":9658,"Ġlighting":9659,"Ġconflict":9660,"Ġsubdued":9661,"Ġhorrid":9662,"arned":9663,"Ġstrained":9664,"byshire":9665,"Ġemig":9666,"poise":9667,"Ġrefusal":9668,"Ġrestore":9669,"licted":9670,"Ġfolly":9671,"Ġcheese":9672,"Ġinterpre":9673,"Ġworldly":9674,"Ġhump":9675,"Ġhumble":9676,"Ġmonstr":9677,"Ġholder":9678,"Ġbestow":9679,"Ġquestioned":9680,"Ġsentiments":9681,"ĠUhlans":9682,"disco":9683,"engaged":9684,"Ġdefined":9685,"Ġimaginary":9686,"Ġdispersed":9687,"Ġarticle":9688,"Ġsimplicity":9689,"Ġbrighter":9690,"pecial":9691,"Those":9692,"Three":9693,"Ġglobe":9694,"Ġsettling":9695,"Ġposted":9696,"please":9697,"Ġstrengthen":9698,"Ġsolely":9699,"cheer":9700,"Ġeleven":9701,"Ġweaker":9702,"Ã¡ysk":9703,"Ġfifth":9704,"Ġundoubtedly":9705,"Ġfirmness":9706,"Ġaccordingly":9707,"knowledge":9708,"Ġmarket":9709,"Ġpictured":9710,"Ġchurchyard":9711,"afie":9712,"Ġdismay":9713,"Ġdismounted":9714,"drawn":9715,"Ġmassive":9716,"acquainted":9717,"Ġlimit":9718,"Ġretreated":9719,"Ġbreathless":9720,"Ġsmoked":9721,"Ġkilling":9722,"Ġprinted":9723,"Ġsuspense":9724,"Ġvainly":9725,"laws":9726,"Ġstruggling":9727,"Ġmelted":9728,"Ġwonders":9729,"Ġmagnific":9730,"marriage":9731,"Ġshrill":9732,"Ġindicating":9733,"Ġthreatening":9734,"Ġrecollect":9735,"Everything":9736,"Ġmystic":9737,"Ġcombined":9738,"Ġinjury":9739,"Ġmotives":9740,"fallen":9741,"zhÃ¡ysk":9742,"Ġcorporal":9743,"Ġbleeding":9744,"irectly":9745,"Ġmalice":9746,"Countess":9747,"Ġseverely":9748,"Ġstretching":9749,"effect":9750,"Ġdeclined":9751,"silence":9752,"Ġrecommended":9753,"Ġstooping":9754,"Ġterrified":9755,"Ġinevitably":9756,"Ġpilot":9757,"Ġconversations":9758,"Ġconfidential":9759,"Ġweapons":9760,"Ġmagic":9761,"Ġdiplomatic":9762,"Ġembarrassment":9763,"Ġhalted":9764,"Ġamusement":9765,"Ġinspired":9766,"Ġindignation":9767,"Ġlingering":9768,"Ġgrieved":9769,"Ġpiercing":9770,"Ġdefeat":9771,"Ġlinen":9772,"Ġetc":9773,"Ġencouraged":9774,"Ġfelic":9775,"neighbour":9776,"Ġtraveller":9777,"espite":9778,"Ġsallow":9779,"troops":9780,"Ġzeal":9781,"Ġassert":9782,"Ġdragoons":9783,"Halloa":9784,"ausset":9785,"Ġsenior":9786,"ÃŃtsyn":9787,"Ġsymptoms":9788,"extraordinary":9789,"Ġclumsy":9790,"!_":9791,"!--":9792,");":9793,"Boy":9794,"CH":9795,"Gu":9796,"King":9797,"Monsieur":9798,"Mean":9799,"Section":9800,"TH":9801,"TI":9802,"TR":9803,"_)":9804,"aver":9805,"aired":9806,"ban":9807,"bare":9808,"broad":9809,"cru":9810,"diss":9811,"dressed":9812,"elf":9813,"ears":9814,"eenth":9815,"gic":9816,"greg":9817,"hig":9818,"hung":9819,"marked":9820,"oil":9821,"pet":9822,"phan":9823,"port":9824,"pale":9825,"ridge":9826,"rÃ¡s":9827,"slow":9828,"tis":9829,"uary":9830,"vich":9831,"wale":9832,"hetor":9833,"reck":9834,"eration":9835,"Ġbark":9836,"Ġborrow":9837,"ingling":9838,"Ġfishing":9839,"Ġferv":9840,"Ġtot":9841,"Ġtoken":9842,"Ġtomb":9843,"arms":9844,"Ġink":9845,"Ġinward":9846,"Ġinser":9847,"anx":9848,"Ġped":9849,"Ġpas":9850,"Ġnin":9851,"Ġbend":9852,"Ġbees":9853,"Ġbeef":9854,"oton":9855,"uts":9856,"Ġgla":9857,"stern":9858,"lder":9859,"Ġwashed":9860,"Ġthreshold":9861,"Ġult":9862,"etch":9863,"adays":9864,"irch":9865,"alk":9866,"rop":9867,"rove":9868,"Ġstolen":9869,"ereshch":9870,"ifting":9871,"Ġmeek":9872,"ĠMother":9873,"kept":9874,"Ġsoil":9875,"ĠâĢľâĢĺ":9876,"ĠHill":9877,"ĠPres":9878,"ilight":9879,"Ġsullen":9880,"ichna":9881,"âĢĶâĢĺ":9882,"ĠSto":9883,"ĠShall":9884,"ĠBright":9885,"ĠBarn":9886,"Ġorn":9887,"Ġexasper":9888,"indic":9889,"Ġmanagement":9890,"liance":9891,"Ġweighed":9892,"ums":9893,"ĠDor":9894,"ĠDay":9895,"ĠDear":9896,"ĠDunyÃ¡sha":9897,"ĠDrubetsk":9898,"Ġaboard":9899,"ĠClair":9900,"agues":9901,"Ġjun":9902,"odka":9903,"Ġamusing":9904,"ĠLI":9905,"Ġspin":9906,"Ġspine":9907,"Ġspared":9908,"vings":9909,"vingly":9910,"ĠRevolution":9911,"rup":9912,"Ġpond":9913,"Ġpoverty":9914,"Ġthoughtfully":9915,"shot":9916,"Ġpeering":9917,"Ġowners":9918,"Ġperils":9919,"Ġchains":9920,"Ġimpl":9921,"ĠKrem":9922,"Ġspeci":9923,"Ġflashed":9924,"Ġrail":9925,"rossed":9926,"Ġpleasures":9927,"servation":9928,"Ġslate":9929,"skaya":9930,"Ġdragging":9931,"Ġmorose":9932,"Ġsubord":9933,"Ġsublime":9934,"Ġrefresh":9935,"Ġcorners":9936,"licated":9937,"actions":9938,"gram":9939,"ogue":9940,"Ġcrushed":9941,"bring":9942,"Ġfinishing":9943,"Ġinsist":9944,"Ġdoubted":9945,"ĠSoon":9946,"rooms":9947,"ĠBeausset":9948,"ĠYOU":9949,"Ġoppress":9950,"clear":9951,"govern":9952,"Ġvillain":9953,"Ġstragg":9954,"nature":9955,"Ġlawyer":9956,"everybody":9957,"Ġsweep":9958,"Ġsummit":9959,"Ġbrightened":9960,"Ġpurple":9961,"ÃŃnichna":9962,"scar":9963,"Ġmasters":9964,"interval":9965,"Stubb":9966,"Ġcopies":9967,"Ġelements":9968,"Ġelephant":9969,"iamond":9970,"Ġportion":9971,"ĠEveryone":9972,"Ġwhispers":9973,"Ġdeserve":9974,"distinct":9975,"Ġcasks":9976,"Ġenjoying":9977,"certainly":9978,"athemat":9979,"Ġretreating":9980,"Ġcasting":9981,"Ġlieutenant":9982,"Ġflee":9983,"passion":9984,"Ġcounsel":9985,"Ġspreading":9986,"Ġmasts":9987,"Ġinnocence":9988,"calm":9989,"Ġattendant":9990,"Ġknocking":9991,"Ġembrace":9992,"Ġimpatiently":9993,"closed":9994,"Ġsplit":9995,"Ġbenefit":9996,"Ġbitterly":9997,"Ġhesitation":9998,"Ġamazed":9999}